#include "magic_wand_model_data.h"

// We need to keep the data array aligned on some architectures.
#ifdef __has_attribute
#define HAVE_ATTRIBUTE(x) __has_attribute(x)
#else
#define HAVE_ATTRIBUTE(x) 0
#endif
#if HAVE_ATTRIBUTE(aligned) || (defined(__GNUC__) && !defined(__clang__))
#define DATA_ALIGN_ATTRIBUTE __attribute__((aligned(4)))
#else
#define DATA_ALIGN_ATTRIBUTE
#endif

const unsigned char g_magic_wand_model_data[] DATA_ALIGN_ATTRIBUTE = {
  0x20, 0x00, 0x00, 0x00, 0x54, 0x46, 0x4c, 0x33, 0x00, 0x00, 0x00, 0x00,
  0x00, 0x00, 0x12, 0x00, 0x1c, 0x00, 0x04, 0x00, 0x08, 0x00, 0x0c, 0x00,
  0x10, 0x00, 0x14, 0x00, 0x00, 0x00, 0x18, 0x00, 0x12, 0x00, 0x00, 0x00,
  0x03, 0x00, 0x00, 0x00, 0xf0, 0x1a, 0x00, 0x00, 0x20, 0x13, 0x00, 0x00,
  0x08, 0x13, 0x00, 0x00, 0x34, 0x00, 0x00, 0x00, 0x04, 0x00, 0x00, 0x00,
  0x01, 0x00, 0x00, 0x00, 0x04, 0x00, 0x00, 0x00, 0xc0, 0xe5, 0xff, 0xff,
  0x08, 0x00, 0x00, 0x00, 0x11, 0x00, 0x00, 0x00, 0x13, 0x00, 0x00, 0x00,
  0x6d, 0x69, 0x6e, 0x5f, 0x72, 0x75, 0x6e, 0x74, 0x69, 0x6d, 0x65, 0x5f,
  0x76, 0x65, 0x72, 0x73, 0x69, 0x6f, 0x6e, 0x00, 0x12, 0x00, 0x00, 0x00,
  0xc8, 0x12, 0x00, 0x00, 0x78, 0x12, 0x00, 0x00, 0xa8, 0x11, 0x00, 0x00,
  0x8c, 0x11, 0x00, 0x00, 0x3c, 0x11, 0x00, 0x00, 0x0c, 0x11, 0x00, 0x00,
  0xfc, 0x09, 0x00, 0x00, 0xf4, 0x09, 0x00, 0x00, 0xec, 0x09, 0x00, 0x00,
  0xe4, 0x09, 0x00, 0x00, 0xdc, 0x09, 0x00, 0x00, 0xd4, 0x09, 0x00, 0x00,
  0xcc, 0x09, 0x00, 0x00, 0xbc, 0x01, 0x00, 0x00, 0x2c, 0x00, 0x00, 0x00,
  0x24, 0x00, 0x00, 0x00, 0x1c, 0x00, 0x00, 0x00, 0x04, 0x00, 0x00, 0x00,
  0x06, 0xed, 0xff, 0xff, 0x04, 0x00, 0x00, 0x00, 0x05, 0x00, 0x00, 0x00,
  0x31, 0x2e, 0x35, 0x2e, 0x30, 0x00, 0x00, 0x00, 0xd4, 0xe5, 0xff, 0xff,
  0xd8, 0xe5, 0xff, 0xff, 0x22, 0xed, 0xff, 0xff, 0x04, 0x00, 0x00, 0x00,
  0x80, 0x01, 0x00, 0x00, 0xeb, 0x31, 0x94, 0xbc, 0xc4, 0x11, 0x1c, 0xbd,
  0x4f, 0xfa, 0xb6, 0x3e, 0xfb, 0xe2, 0x16, 0x3d, 0xaf, 0xe6, 0x9b, 0x3d,
  0x7b, 0x16, 0x8e, 0xbe, 0x81, 0x24, 0xe0, 0xbd, 0x8e, 0x1d, 0xe8, 0x3e,
  0xf0, 0x1b, 0x93, 0x3c, 0xba, 0x1b, 0xa6, 0x3e, 0xf0, 0x58, 0x71, 0xbe,
  0xfb, 0x69, 0x07, 0xbd, 0x37, 0xd3, 0x12, 0xbe, 0xa5, 0x2f, 0x7b, 0x3e,
  0x9c, 0x84, 0xfa, 0xbd, 0x69, 0xba, 0xdd, 0x3d, 0x46, 0xb7, 0xb3, 0x3c,
  0xeb, 0x86, 0x40, 0x3d, 0x68, 0xf8, 0x3a, 0x3d, 0xc3, 0x62, 0x75, 0xbd,
  0x0c, 0x7a, 0x39, 0xbe, 0x6a, 0xc8, 0xb2, 0xbe, 0xae, 0xa8, 0x9f, 0x3d,
  0xdb, 0x02, 0xb3, 0xbd, 0x1c, 0xc3, 0x45, 0x3d, 0x44, 0x84, 0x7a, 0x3e,
  0x96, 0xb8, 0x16, 0x3d, 0x22, 0x9a, 0xe0, 0x3e, 0x88, 0xd1, 0x84, 0xbe,
  0xb2, 0xb7, 0xe5, 0xbc, 0xb9, 0x87, 0x83, 0xbd, 0x3b, 0xc8, 0x3d, 0x3e,
  0x50, 0xd1, 0x25, 0x3e, 0xcb, 0xb0, 0x48, 0xbe, 0xfb, 0x6b, 0x48, 0x3d,
  0xbc, 0x63, 0xa2, 0x3d, 0xc1, 0xa5, 0x42, 0xbe, 0x95, 0x8d, 0xcc, 0x3d,
  0x29, 0xc7, 0x9e, 0xbd, 0x78, 0x8f, 0xa6, 0x3c, 0x9c, 0xbe, 0xc2, 0x3e,
  0x03, 0xb4, 0xa9, 0x3e, 0x2c, 0x3d, 0x21, 0x3e, 0xe8, 0x7f, 0x60, 0xbe,
  0xd1, 0x09, 0xcf, 0xbe, 0x58, 0x54, 0x8b, 0x3d, 0x6e, 0xf4, 0xd3, 0x3d,
  0x1a, 0xd5, 0x9f, 0x3c, 0x06, 0x03, 0xa2, 0xbe, 0x8d, 0xc7, 0x89, 0xbe,
  0x0b, 0x8f, 0x75, 0xbe, 0xfb, 0xfc, 0xfb, 0xbd, 0xe6, 0x3f, 0x71, 0x3e,
  0xde, 0xfa, 0x20, 0x3e, 0x04, 0x23, 0x8b, 0xbc, 0xa9, 0xb1, 0xda, 0x3c,
  0x6c, 0x5b, 0xb5, 0xbd, 0xc3, 0x02, 0x37, 0x3c, 0xfd, 0xed, 0x33, 0x3d,
  0x00, 0x0c, 0x02, 0x3e, 0x99, 0x29, 0x67, 0x3e, 0xd0, 0x63, 0x92, 0xbd,
  0xd8, 0xdc, 0x72, 0xbd, 0x19, 0x53, 0x4d, 0x3d, 0xac, 0x85, 0xe3, 0x3c,
  0x68, 0x3b, 0xdf, 0x3c, 0x98, 0xce, 0x07, 0xbc, 0xc6, 0x66, 0x96, 0x3e,
  0x38, 0xe4, 0xba, 0x3e, 0x62, 0x1b, 0xe6, 0xbd, 0x28, 0x68, 0x97, 0x3d,
  0xe0, 0x3f, 0x81, 0xbd, 0x90, 0x7b, 0x88, 0x3e, 0x70, 0x9c, 0x56, 0x3e,
  0x4f, 0x3f, 0x11, 0xbe, 0x0e, 0x99, 0xb6, 0xbe, 0x22, 0xdb, 0x4c, 0x3e,
  0x52, 0x57, 0x6b, 0x3e, 0x57, 0x5b, 0x96, 0xbc, 0x29, 0x63, 0xfb, 0xbd,
  0xed, 0x76, 0xe6, 0xbd, 0x46, 0x37, 0x3c, 0x3c, 0xca, 0x89, 0xe7, 0x3d,
  0x9d, 0xa0, 0x2c, 0xbe, 0x81, 0xbb, 0x4f, 0x3e, 0xa4, 0xb3, 0x7a, 0xbe,
  0xb1, 0xff, 0x44, 0xbd, 0x76, 0x00, 0x00, 0x3e, 0x26, 0x6b, 0xe0, 0xbe,
  0xb5, 0xdf, 0x8b, 0xbe, 0xf1, 0x33, 0x05, 0xbd, 0x2b, 0xb0, 0xc8, 0xbc,
  0x6d, 0xc7, 0x5a, 0x3e, 0xaf, 0x27, 0xc4, 0x3e, 0xed, 0x1a, 0x9b, 0x3d,
  0x2f, 0x46, 0x42, 0xbb, 0xae, 0xee, 0xff, 0xff, 0x04, 0x00, 0x00, 0x00,
  0x00, 0x08, 0x00, 0x00, 0x5c, 0x7b, 0xf2, 0x3d, 0x4f, 0x0b, 0x03, 0xbe,
  0xd6, 0x9d, 0x1c, 0xbe, 0xd2, 0x31, 0x7c, 0xbe, 0x22, 0x68, 0xd5, 0xbd,
  0xbd, 0xa8, 0xa1, 0x3d, 0x65, 0x71, 0x10, 0x3d, 0x50, 0xf2, 0x1f, 0xbd,
  0x1f, 0xd6, 0xa9, 0xbd, 0xf7, 0x29, 0xc7, 0x3a, 0x38, 0x57, 0x83, 0xbc,
  0x24, 0xb1, 0x84, 0x3e, 0xad, 0x66, 0x40, 0xbe, 0x23, 0x7b, 0xa2, 0x3c,
  0xe9, 0xcf, 0x3b, 0xbd, 0xe3, 0x82, 0x3c, 0x3d, 0xa0, 0xf0, 0x64, 0xbe,
  0xe0, 0xa8, 0x55, 0xbd, 0x95, 0x26, 0x44, 0x3d, 0x9f, 0x08, 0xbf, 0xbd,
  0x2d, 0x2c, 0xdd, 0x3e, 0x28, 0xd4, 0x56, 0xbc, 0x09, 0x0c, 0x61, 0xbe,
  0x99, 0xb2, 0x81, 0x3d, 0x4a, 0xd4, 0xc0, 0xbd, 0x72, 0xc1, 0x6d, 0xbe,
  0xbd, 0xd2, 0x59, 0xbe, 0x44, 0x63, 0x81, 0xbd, 0x94, 0xfa, 0xab, 0xbe,
  0xe5, 0x00, 0x3c, 0xbe, 0xde, 0x35, 0x8a, 0xbe, 0xee, 0xf8, 0xe0, 0xbe,
  0x44, 0x44, 0x11, 0xbd, 0xe8, 0x05, 0xb0, 0xbe, 0xf5, 0xf4, 0x3e, 0xbe,
  0x5d, 0x90, 0xcc, 0x3c, 0x2a, 0x96, 0x2a, 0xbe, 0xe3, 0xdd, 0xea, 0xbe,
  0x1c, 0xe6, 0x87, 0xbd, 0x92, 0xc9, 0x34, 0xbe, 0xf4, 0xb6, 0xf3, 0x3d,
  0x21, 0xb4, 0xd8, 0xbe, 0xb5, 0x62, 0xe2, 0xbc, 0xc1, 0xf9, 0xb7, 0x3e,
  0x18, 0xc8, 0xfe, 0xbe, 0xf4, 0x27, 0x1b, 0x3e, 0xa4, 0x94, 0xf8, 0xbc,
  0x54, 0x9a, 0x90, 0xbe, 0xf7, 0x96, 0x6e, 0xbd, 0x67, 0xb1, 0xb4, 0xbe,
  0xca, 0xa0, 0xb2, 0x3e, 0x7e, 0xab, 0x80, 0x3e, 0xe5, 0x28, 0xc1, 0x3d,
  0x0b, 0x28, 0x3a, 0x3e, 0xbe, 0x76, 0xac, 0xbc, 0xc8, 0x81, 0x23, 0xbf,
  0x18, 0xbd, 0xd6, 0xbd, 0x7d, 0xff, 0xfc, 0x3d, 0x10, 0xde, 0x2b, 0xbc,
  0xdd, 0xbd, 0xdd, 0xbe, 0x38, 0x81, 0x7b, 0xbb, 0x3d, 0xbc, 0x74, 0x3e,
  0xd6, 0xcc, 0x6e, 0xbd, 0x8c, 0x9c, 0x05, 0xbf, 0x0a, 0x79, 0x8b, 0x3e,
  0xda, 0x54, 0x16, 0x3d, 0x37, 0xe2, 0xe6, 0xbc, 0x2d, 0xf3, 0x21, 0x3e,
  0x0e, 0xd0, 0xbf, 0x3c, 0x31, 0x0d, 0x06, 0x3e, 0x08, 0x42, 0xdd, 0xbe,
  0xda, 0xfd, 0x4d, 0xbe, 0xb8, 0xd6, 0x9c, 0xbd, 0x63, 0xb7, 0xca, 0x3e,
  0xa1, 0x9c, 0x5f, 0xbc, 0x8f, 0xd0, 0x9e, 0x3e, 0x43, 0x08, 0xfa, 0xbd,
  0x59, 0x50, 0x98, 0x3d, 0x97, 0x6c, 0xaf, 0xbe, 0x68, 0x65, 0x57, 0xbd,
  0xf8, 0x59, 0x9c, 0x3d, 0x77, 0xdf, 0x4c, 0xbe, 0xcd, 0x8a, 0x2b, 0x3e,
  0xf5, 0x83, 0x81, 0x3d, 0x5c, 0x98, 0x9a, 0x3d, 0xf0, 0xec, 0x1f, 0x3c,
  0x6f, 0x1c, 0x89, 0xbe, 0x67, 0xb4, 0x4b, 0xbe, 0x20, 0x97, 0x0e, 0x3f,
  0xb6, 0xc5, 0x65, 0x3e, 0xac, 0xa2, 0x01, 0x3c, 0xbd, 0xd4, 0xd7, 0x3d,
  0x83, 0x99, 0xad, 0xbd, 0x09, 0x8f, 0x39, 0x3d, 0x12, 0xab, 0x86, 0xbe,
  0x5f, 0x48, 0x35, 0xbe, 0x1a, 0x5c, 0x0b, 0x3e, 0x84, 0xe4, 0xf6, 0xbb,
  0x9f, 0x79, 0x2c, 0xbd, 0x4b, 0x89, 0x06, 0x3e, 0xb8, 0x80, 0x8d, 0xbe,
  0x03, 0x4d, 0xab, 0xbd, 0xa9, 0x4d, 0x90, 0xbe, 0x74, 0x75, 0x3b, 0xbe,
  0xb2, 0xb4, 0x35, 0x3e, 0xa5, 0x7b, 0x3c, 0xbe, 0xfa, 0xd7, 0x87, 0xbe,
  0x03, 0xba, 0xc3, 0x3e, 0xc3, 0x2f, 0xca, 0x3e, 0x75, 0x18, 0x9e, 0xbb,
  0x5b, 0x68, 0xc6, 0xbe, 0x2d, 0x7d, 0x8f, 0xbd, 0x1c, 0x2d, 0x87, 0xbd,
  0xd8, 0xf1, 0x37, 0x3e, 0x46, 0xcd, 0xe2, 0x3c, 0xe0, 0x15, 0xf0, 0x3c,
  0x00, 0x44, 0x0b, 0xbe, 0x11, 0xea, 0x2a, 0x3e, 0x3f, 0xe2, 0x91, 0xbe,
  0xb6, 0xe9, 0xe4, 0xbd, 0xb2, 0xc3, 0x96, 0x3e, 0xc2, 0x79, 0x9c, 0x3d,
  0x2d, 0x22, 0x05, 0x3e, 0xe9, 0x3a, 0x8e, 0x3d, 0x25, 0x92, 0x93, 0x3d,
  0x87, 0xcc, 0x39, 0x3d, 0x36, 0x47, 0x71, 0xbe, 0x82, 0x6d, 0x80, 0xbd,
  0xa7, 0xa0, 0xa6, 0xbe, 0x2a, 0xab, 0xe0, 0xbd, 0x78, 0xa5, 0xa7, 0xbe,
  0x82, 0x6e, 0xe3, 0xbe, 0x70, 0x20, 0x2e, 0xbe, 0x99, 0xeb, 0x65, 0x3e,
  0x44, 0xcb, 0x8e, 0xbd, 0xa7, 0x3a, 0x17, 0xbe, 0xcc, 0xa2, 0x79, 0x3d,
  0x31, 0x0e, 0x00, 0xbd, 0xae, 0xfd, 0x95, 0xbe, 0xa7, 0xeb, 0x94, 0x3d,
  0xa7, 0x52, 0x63, 0x3d, 0xed, 0x20, 0x75, 0xbd, 0x7e, 0x6a, 0x8f, 0xbd,
  0x73, 0x6a, 0x73, 0xbd, 0x37, 0xb4, 0x2a, 0x3e, 0xed, 0xf5, 0xd1, 0x3c,
  0x84, 0x12, 0x0f, 0x3e, 0x56, 0xc4, 0xd2, 0x3d, 0x99, 0x4e, 0x5c, 0x3d,
  0x6b, 0xdb, 0xce, 0xbd, 0xea, 0x1c, 0x46, 0xbd, 0xff, 0xea, 0x4d, 0x3d,
  0x21, 0xd1, 0x61, 0x3d, 0x41, 0x11, 0x28, 0xbd, 0x96, 0xb0, 0xa9, 0x3e,
  0xa7, 0x62, 0xbd, 0x3e, 0x26, 0x78, 0x68, 0xbe, 0xa2, 0x3c, 0x38, 0xbb,
  0x8b, 0x3b, 0x6c, 0x3d, 0xe4, 0x07, 0xaf, 0xbd, 0x18, 0x62, 0xe2, 0xbd,
  0x64, 0xb3, 0x44, 0xbe, 0x57, 0x70, 0x0c, 0xbe, 0x36, 0x2d, 0x72, 0x3d,
  0xbb, 0xe2, 0x94, 0x3d, 0x08, 0x4f, 0xe8, 0xbd, 0xea, 0x27, 0xcd, 0xbc,
  0x45, 0x3b, 0x70, 0x3e, 0x65, 0x9c, 0x60, 0x3e, 0xe6, 0xb4, 0xa8, 0x3d,
  0x80, 0x97, 0x1f, 0x3e, 0x9b, 0xa2, 0x13, 0x3e, 0xb3, 0xbe, 0x8d, 0xbc,
  0xbb, 0x90, 0x9d, 0x3c, 0x78, 0xb1, 0x29, 0x3e, 0x47, 0x41, 0x4c, 0x3d,
  0xf5, 0xb0, 0x32, 0xbd, 0x19, 0xe0, 0x1f, 0xbd, 0xb0, 0x9c, 0x85, 0x3c,
  0xc9, 0x34, 0xad, 0xbc, 0x0b, 0x54, 0xeb, 0x3d, 0xd5, 0x18, 0x07, 0xbe,
  0x1f, 0xc3, 0x7d, 0xbd, 0x99, 0x89, 0x1f, 0x3d, 0xd9, 0xe6, 0x1d, 0xbe,
  0x32, 0xb0, 0xd5, 0x39, 0x37, 0x19, 0x73, 0x3c, 0x8d, 0x7c, 0x5f, 0xbe,
  0x47, 0xcc, 0x9d, 0x3d, 0x37, 0x98, 0xdf, 0xbd, 0x9f, 0xe9, 0xc2, 0x3e,
  0xd7, 0xd5, 0x99, 0xbc, 0x58, 0x4d, 0x8c, 0x3e, 0x29, 0x3d, 0xef, 0x3e,
  0x2f, 0x7c, 0x07, 0xbd, 0xff, 0xde, 0x39, 0x3e, 0x09, 0x0f, 0x94, 0xbd,
  0x34, 0xf7, 0x48, 0xbe, 0xf3, 0x2e, 0xf3, 0xbc, 0x89, 0xd8, 0xac, 0x3e,
  0x89, 0x4b, 0x6d, 0xbe, 0x70, 0x2a, 0xb2, 0xbe, 0x9b, 0x57, 0x09, 0xbe,
  0x62, 0xfd, 0x89, 0xbe, 0x52, 0x05, 0x6d, 0xbe, 0xff, 0x99, 0x50, 0xbe,
  0x53, 0x01, 0xb4, 0xbc, 0x1c, 0xba, 0x76, 0xbe, 0xf8, 0xd4, 0xc4, 0xbe,
  0x67, 0x4d, 0xdc, 0xbe, 0xc0, 0x0b, 0x43, 0xbe, 0x60, 0x4b, 0x6a, 0xbd,
  0x8b, 0xc1, 0xdc, 0xbc, 0xd7, 0x9e, 0xf2, 0x3d, 0x3c, 0x10, 0x0e, 0x3b,
  0xb2, 0x47, 0xb0, 0xbe, 0x0b, 0x47, 0x70, 0x3e, 0xbe, 0xe0, 0x4d, 0xbe,
  0x11, 0x07, 0xb3, 0x3e, 0xe4, 0x59, 0x8b, 0x3e, 0x50, 0xec, 0x09, 0xbe,
  0x49, 0xe8, 0x71, 0x3e, 0xe9, 0xfc, 0xb7, 0x3c, 0x44, 0xbc, 0x97, 0xbe,
  0xd2, 0x1f, 0x10, 0x3e, 0xdf, 0x77, 0xf6, 0xbe, 0x49, 0x66, 0xdc, 0xbd,
  0xfd, 0xd5, 0xea, 0xbd, 0x71, 0x76, 0x50, 0xbe, 0x92, 0x53, 0xcf, 0xbe,
  0x19, 0xcf, 0xa7, 0xbe, 0xdd, 0xb6, 0x09, 0xbf, 0x93, 0x5c, 0x4c, 0xbe,
  0x0c, 0x88, 0x84, 0xbd, 0x13, 0x4e, 0x55, 0xbe, 0x54, 0x74, 0x5b, 0xbe,
  0x78, 0x56, 0x1d, 0xbd, 0xa8, 0x43, 0x65, 0x3d, 0xa6, 0x66, 0xa0, 0xbd,
  0x52, 0x3c, 0xe0, 0x3e, 0xe3, 0xa0, 0x0d, 0xbe, 0xa9, 0x22, 0xc5, 0x3c,
  0x9c, 0x7f, 0xe3, 0xbd, 0xe9, 0x29, 0x65, 0xbe, 0x16, 0x94, 0x37, 0x3d,
  0x24, 0x6d, 0x47, 0xbe, 0xda, 0x27, 0xaa, 0xbd, 0xec, 0x07, 0x03, 0xbd,
  0xd9, 0x97, 0x8f, 0x3d, 0x23, 0xca, 0x2b, 0xbd, 0x0e, 0x5a, 0x45, 0xbd,
  0x41, 0x51, 0x82, 0x3d, 0x31, 0x42, 0x28, 0x3c, 0x25, 0x87, 0xba, 0x3d,
  0x8e, 0x08, 0xae, 0x3c, 0x9e, 0x53, 0xdc, 0xbc, 0x92, 0x0c, 0x0c, 0x3c,
  0xa9, 0x57, 0xb9, 0xbe, 0x99, 0x09, 0xcd, 0xbe, 0xe8, 0x1d, 0x14, 0xbe,
  0x18, 0x2b, 0xd8, 0x3e, 0xa8, 0xc8, 0x2b, 0x3d, 0x11, 0x2e, 0x8e, 0xbe,
  0xc5, 0xb6, 0xf0, 0xbd, 0x63, 0x33, 0x30, 0xbb, 0x1f, 0x82, 0x08, 0xbe,
  0x3a, 0xda, 0x57, 0xbe, 0x1d, 0x4b, 0x68, 0x3e, 0xcd, 0xef, 0x1d, 0x3f,
  0x17, 0x66, 0x93, 0xbd, 0x4e, 0x15, 0xbc, 0xbe, 0x6b, 0x5a, 0xcc, 0xbc,
  0xd4, 0xf3, 0xc1, 0x3d, 0xf0, 0x4b, 0xb9, 0xbc, 0xfc, 0x3b, 0xef, 0x3d,
  0x69, 0x20, 0x2d, 0x3e, 0x2c, 0x82, 0xe6, 0xbd, 0xb7, 0xad, 0x8e, 0xbe,
  0x74, 0xee, 0x90, 0xbd, 0xb7, 0xb9, 0x21, 0xbd, 0xe3, 0xc8, 0xdd, 0xbd,
  0x5d, 0x4b, 0x29, 0xbe, 0xef, 0xe0, 0x50, 0xbd, 0x51, 0x48, 0x47, 0xbd,
  0x55, 0x28, 0x2b, 0xbe, 0x64, 0xa8, 0xc6, 0xbe, 0xe6, 0xc0, 0xea, 0x3c,
  0xfd, 0x68, 0x40, 0xbd, 0x7c, 0x24, 0xa9, 0xbe, 0xd1, 0x4a, 0x51, 0x3b,
  0x03, 0x7c, 0x0f, 0xbc, 0x8e, 0x11, 0x36, 0xbc, 0x37, 0xcf, 0x14, 0xbe,
  0x99, 0x4f, 0xe1, 0x3d, 0x0a, 0xd3, 0xb6, 0xbd, 0x8e, 0x11, 0x12, 0xbe,
  0x07, 0x61, 0xfe, 0xbd, 0x01, 0xf4, 0x08, 0xbe, 0xb6, 0xd5, 0x97, 0x3b,
  0x6d, 0x2c, 0x1c, 0x3c, 0xf5, 0x1e, 0x80, 0xbd, 0x98, 0x28, 0x43, 0x3c,
  0x86, 0x8e, 0x05, 0x3e, 0x76, 0xd5, 0x07, 0xbe, 0x06, 0xfa, 0xd5, 0xbd,
  0xe0, 0xc4, 0x9a, 0xbd, 0x7b, 0xfb, 0x50, 0x3e, 0xf7, 0xfc, 0x97, 0xbd,
  0xc7, 0xfd, 0x10, 0x3e, 0x48, 0xe4, 0x17, 0x3c, 0x93, 0xb7, 0x89, 0x3e,
  0xaf, 0xef, 0xd0, 0xbd, 0x82, 0x53, 0x03, 0xbe, 0x9b, 0x1d, 0x24, 0xbe,
  0xac, 0x52, 0x65, 0x3e, 0x24, 0x4e, 0x1a, 0x3c, 0xc1, 0x77, 0xab, 0xbe,
  0xfe, 0x27, 0x6d, 0xbe, 0x7a, 0xda, 0xe9, 0x3d, 0x0c, 0xbc, 0xb1, 0x3d,
  0x24, 0x46, 0x87, 0x3e, 0x3d, 0x31, 0xc8, 0x3d, 0xae, 0x82, 0x32, 0x3d,
  0x68, 0xb7, 0x0c, 0x3e, 0x1a, 0x99, 0x52, 0xbe, 0xe9, 0x4f, 0x81, 0xbe,
  0xec, 0x08, 0x27, 0xbe, 0xd7, 0xa2, 0xd9, 0x3d, 0x09, 0x55, 0x12, 0x3e,
  0x74, 0xee, 0x88, 0xbe, 0xc4, 0x92, 0x92, 0xbc, 0xc8, 0x69, 0xa9, 0xbc,
  0xca, 0xc9, 0x66, 0xbe, 0x76, 0x69, 0xb1, 0xbe, 0xba, 0x9d, 0x0a, 0xbd,
  0xb2, 0xfc, 0xa4, 0xbd, 0x7a, 0xe4, 0xeb, 0xbd, 0x4c, 0x2d, 0xc0, 0xbe,
  0xa7, 0x52, 0x0b, 0xbf, 0xf4, 0xfd, 0xdc, 0xbe, 0xd6, 0x9d, 0xfc, 0xbd,
  0x3d, 0xbf, 0x22, 0xbd, 0x77, 0xd6, 0x7e, 0xbc, 0x1b, 0x5e, 0x95, 0xbd,
  0x89, 0x99, 0xd9, 0xbd, 0x34, 0xe0, 0x46, 0xbd, 0x66, 0x50, 0x0a, 0xbd,
  0x88, 0xdd, 0x9b, 0x3d, 0xad, 0x73, 0x49, 0x3f, 0x37, 0x13, 0xd8, 0x3d,
  0x9d, 0x59, 0x12, 0xbe, 0xce, 0xcb, 0x45, 0xbb, 0xe4, 0xd1, 0xf4, 0x3d,
  0x43, 0x6c, 0x2d, 0x3e, 0x40, 0x01, 0x54, 0xbd, 0x02, 0x10, 0xcd, 0x3e,
  0xd9, 0xc1, 0x59, 0x3d, 0x83, 0xd7, 0x06, 0x3e, 0x7b, 0x5d, 0x0e, 0xbf,
  0xdf, 0xa4, 0x8e, 0x3d, 0x3f, 0x68, 0xe5, 0x3d, 0xb6, 0x66, 0x6d, 0x3e,
  0x53, 0x51, 0x97, 0x3c, 0xf5, 0xe9, 0x57, 0x3e, 0x86, 0xc5, 0x4e, 0xbc,
  0x1a, 0xdb, 0xa7, 0xbe, 0x39, 0x06, 0x61, 0xbe, 0x26, 0xdc, 0xee, 0xbb,
  0x2a, 0x18, 0x02, 0x3e, 0xaa, 0x7b, 0xc8, 0x3d, 0xf5, 0x1a, 0x0d, 0x3e,
  0xca, 0x88, 0x0b, 0xbd, 0xb3, 0xd5, 0x86, 0xbe, 0xfd, 0xc9, 0x69, 0xbe,
  0xee, 0x02, 0x22, 0xbe, 0x07, 0x05, 0x2b, 0xbe, 0xe8, 0x66, 0x49, 0xbe,
  0x2a, 0x56, 0xab, 0xbe, 0xb9, 0x15, 0x93, 0xbe, 0x7d, 0xb1, 0x35, 0x3e,
  0x69, 0x2d, 0x29, 0x3e, 0xd4, 0x81, 0xb0, 0x3d, 0x8b, 0xfe, 0x85, 0xbc,
  0xa1, 0x25, 0xb3, 0xbe, 0xfe, 0x09, 0xc2, 0xbe, 0x64, 0xfe, 0x1c, 0xbe,
  0x11, 0x53, 0x00, 0xbf, 0x3c, 0x48, 0x07, 0xbf, 0x95, 0x20, 0x53, 0xbe,
  0xf3, 0x66, 0x5a, 0xbd, 0x5c, 0xff, 0x8f, 0xbd, 0xac, 0x7e, 0xf0, 0xbe,
  0xff, 0xf7, 0xb2, 0x3d, 0x11, 0xfe, 0xa6, 0xbe, 0xd9, 0x5b, 0x3c, 0xbc,
  0x4f, 0x84, 0xbf, 0x3d, 0xe8, 0x07, 0xe1, 0xbc, 0xbe, 0xc9, 0x26, 0x3d,
  0x61, 0x17, 0xc1, 0x3c, 0x97, 0xc3, 0xb9, 0xbe, 0x29, 0x2c, 0x4e, 0x3c,
  0xca, 0x42, 0x12, 0xbe, 0x6d, 0x6b, 0xba, 0x3e, 0x75, 0x87, 0x29, 0x3e,
  0xec, 0x64, 0xbf, 0x3d, 0xfb, 0xf1, 0x9e, 0x3e, 0x82, 0x12, 0xfb, 0xbc,
  0xe0, 0xe9, 0xaa, 0xbe, 0x7a, 0x60, 0x91, 0xbb, 0x6d, 0xac, 0x4d, 0x3c,
  0x32, 0x92, 0xf5, 0x3c, 0x33, 0xc6, 0xc0, 0x3d, 0x06, 0x65, 0x1b, 0x3e,
  0x46, 0xac, 0xeb, 0x3e, 0x84, 0x09, 0x56, 0xbd, 0xba, 0x99, 0x4c, 0xbe,
  0xa4, 0x6f, 0xe0, 0xbd, 0x5e, 0x3f, 0x5d, 0xbc, 0x77, 0x86, 0x82, 0xbd,
  0xe0, 0x8a, 0xa9, 0xbd, 0x01, 0x25, 0xaa, 0xbd, 0xda, 0xe5, 0x31, 0x3d,
  0x90, 0xe5, 0x5c, 0xbd, 0x1b, 0x73, 0x97, 0xbd, 0x66, 0x68, 0xc1, 0x3e,
  0x8b, 0xc7, 0xff, 0xbd, 0x81, 0xd3, 0x49, 0xbd, 0xdc, 0x6e, 0xb5, 0x3e,
  0x89, 0xe3, 0x90, 0xbd, 0x88, 0xa0, 0x53, 0xbd, 0x17, 0x0d, 0x6e, 0xbd,
  0x08, 0xfc, 0x6a, 0xbd, 0xf1, 0xe3, 0x16, 0x3e, 0x5d, 0x70, 0x20, 0x3d,
  0x67, 0x87, 0x74, 0x3d, 0x52, 0x8c, 0x6a, 0x3e, 0x81, 0x83, 0x97, 0x3c,
  0x8d, 0x9a, 0xcf, 0x3e, 0xef, 0x90, 0x43, 0xbd, 0xb2, 0x46, 0x2a, 0xbd,
  0x28, 0x50, 0x91, 0xbd, 0xe4, 0x7b, 0x86, 0x3d, 0xdd, 0x86, 0x76, 0x3d,
  0x2b, 0x39, 0x56, 0xbe, 0x97, 0xf6, 0x12, 0xbd, 0x17, 0x88, 0xa1, 0x3e,
  0xa5, 0xbd, 0x15, 0xbd, 0x20, 0xc7, 0xed, 0xbc, 0x34, 0x46, 0x0a, 0x3e,
  0xc3, 0x07, 0x79, 0xbe, 0x40, 0x7e, 0x8e, 0xbe, 0x2c, 0x2c, 0x2a, 0x3c,
  0x1f, 0x6a, 0xfe, 0xbe, 0x46, 0xfc, 0xc3, 0xbe, 0xe0, 0xae, 0xa3, 0xbd,
  0xa5, 0x56, 0x45, 0x3d, 0x61, 0x07, 0x17, 0xbe, 0x62, 0x90, 0x25, 0xbe,
  0x45, 0x0c, 0xe3, 0xbc, 0xf1, 0xfd, 0x86, 0xbe, 0x29, 0x11, 0xc9, 0xbb,
  0xfc, 0xfa, 0x9c, 0xbe, 0xaa, 0xec, 0xae, 0x3c, 0x23, 0xba, 0x04, 0x3e,
  0xea, 0xb5, 0xfd, 0x3d, 0x79, 0x23, 0x90, 0x3d, 0x16, 0x03, 0x3f, 0xbe,
  0x35, 0x53, 0x3c, 0x3d, 0xa9, 0xad, 0x85, 0xbd, 0xf0, 0x29, 0x53, 0xbe,
  0x80, 0x89, 0x9a, 0xbd, 0xc3, 0xda, 0xd1, 0xbc, 0xcc, 0x40, 0xbd, 0x3d,
  0x19, 0x17, 0x25, 0x3e, 0xd6, 0x85, 0x95, 0xbd, 0x8d, 0x83, 0x11, 0x3e,
  0x10, 0xdc, 0xbe, 0xbe, 0x3c, 0x4c, 0x75, 0xbe, 0x1d, 0x7d, 0x91, 0xbe,
  0x37, 0x85, 0x7b, 0x3d, 0x0a, 0xcc, 0x6f, 0xbb, 0x4e, 0x4e, 0x91, 0xbe,
  0xec, 0xe0, 0xf7, 0xbd, 0xd7, 0xbd, 0x58, 0xbd, 0x71, 0x04, 0x24, 0xbe,
  0x0e, 0x31, 0xf9, 0xbd, 0x60, 0x9c, 0x1b, 0xbd, 0x39, 0x41, 0x24, 0x3c,
  0x5e, 0x79, 0x06, 0x3c, 0xb0, 0xa1, 0x1a, 0xbd, 0xaa, 0x37, 0x8d, 0xbe,
  0x3a, 0xdd, 0x86, 0x3d, 0xe6, 0x86, 0xac, 0x3d, 0xaf, 0xf4, 0x0f, 0xbe,
  0x29, 0x01, 0xf6, 0xbb, 0x25, 0xa6, 0xff, 0xbd, 0x30, 0xca, 0x42, 0xbd,
  0x33, 0x5b, 0xf5, 0xbd, 0x5b, 0x4f, 0x16, 0xbe, 0xca, 0xab, 0x42, 0xbe,
  0xe2, 0xc4, 0x64, 0xbd, 0xb0, 0xf3, 0xa8, 0xbe, 0xc0, 0x2d, 0xe0, 0x3c,
  0x0b, 0x7c, 0xa2, 0x3c, 0x53, 0x24, 0x5c, 0xbd, 0xfc, 0x79, 0x97, 0xbe,
  0xf8, 0xe7, 0xba, 0xbd, 0x3d, 0x33, 0x79, 0xbe, 0x91, 0xb6, 0xe1, 0xbd,
  0x1a, 0x2e, 0xe5, 0x3e, 0x76, 0xfe, 0x38, 0xbc, 0x63, 0x2a, 0x70, 0xbd,
  0x74, 0xef, 0xff, 0xff, 0x78, 0xef, 0xff, 0xff, 0x7c, 0xef, 0xff, 0xff,
  0x80, 0xef, 0xff, 0xff, 0x84, 0xef, 0xff, 0xff, 0x88, 0xef, 0xff, 0xff,
  0xd2, 0xf6, 0xff, 0xff, 0x04, 0x00, 0x00, 0x00, 0x00, 0x07, 0x00, 0x00,
  0xf3, 0x26, 0xd7, 0xde, 0xfa, 0x00, 0xef, 0xa2, 0xd6, 0x06, 0xe5, 0xdb,
  0xf7, 0x23, 0x04, 0x0c, 0xf2, 0x19, 0xdd, 0xe3, 0x3e, 0xfc, 0xf2, 0x1b,
  0xd6, 0x02, 0xe7, 0xd4, 0x00, 0x07, 0xed, 0x0b, 0xf5, 0x32, 0xec, 0xf2,
  0x40, 0x00, 0x07, 0x1d, 0xf6, 0x02, 0x0a, 0xff, 0xe2, 0x1d, 0xf4, 0x0f,
  0xf0, 0x2d, 0xcf, 0xf7, 0x26, 0xfe, 0x08, 0x10, 0xfd, 0x02, 0x00, 0xf9,
  0x07, 0x01, 0xfd, 0x18, 0xf2, 0x08, 0xdd, 0xc7, 0x23, 0xfe, 0x0e, 0x01,
  0x07, 0xfc, 0xf4, 0xec, 0x08, 0x12, 0xf8, 0xfa, 0xf6, 0x20, 0xe2, 0xe2,
  0x20, 0xfc, 0x1b, 0x08, 0xcd, 0xfb, 0xfa, 0xd3, 0x1b, 0x16, 0xf6, 0x1b,
  0xfe, 0x15, 0x01, 0xf8, 0x21, 0xff, 0xf6, 0xf8, 0xee, 0x01, 0x00, 0xf7,
  0x00, 0x03, 0xe8, 0xd3, 0x25, 0xe8, 0xfc, 0xfc, 0xf3, 0xe3, 0xe3, 0x3e,
  0xec, 0xeb, 0x0a, 0x00, 0xfd, 0x03, 0x10, 0x0e, 0x12, 0xf1, 0x1b, 0x2f,
  0x1b, 0xde, 0xfe, 0x2a, 0x0e, 0xf9, 0xf6, 0x05, 0xfb, 0x1a, 0xfe, 0x0b,
  0x10, 0xe5, 0x0d, 0x16, 0x09, 0xef, 0xfd, 0x0f, 0x1c, 0xea, 0x0b, 0x04,
  0x0f, 0x20, 0x14, 0xf8, 0x21, 0xf3, 0x17, 0x05, 0x0c, 0xef, 0x14, 0xff,
  0xf9, 0xd5, 0x04, 0xfd, 0x04, 0x09, 0x0c, 0xf5, 0x13, 0xe8, 0x13, 0x15,
  0xf5, 0xe4, 0xfe, 0xee, 0x06, 0xc6, 0x08, 0xf8, 0xfb, 0x15, 0xea, 0xea,
  0xf9, 0xf3, 0x12, 0x11, 0xf5, 0xe8, 0xf9, 0x02, 0xf9, 0xe3, 0xf8, 0x03,
  0x09, 0x1b, 0xf4, 0xfa, 0x09, 0xe3, 0x0a, 0x0a, 0xe4, 0xeb, 0xf1, 0x08,
  0x11, 0xfb, 0xf0, 0x0b, 0xe7, 0xf6, 0xfb, 0xf2, 0xf0, 0xe7, 0x0c, 0xfd,
  0x02, 0xee, 0xff, 0xe9, 0xf7, 0xec, 0xf4, 0x0b, 0x14, 0x10, 0xfc, 0x13,
  0x12, 0xfd, 0x1a, 0x18, 0x06, 0xec, 0x04, 0xfe, 0x13, 0xff, 0xff, 0xff,
  0x13, 0x0f, 0xee, 0x0a, 0xeb, 0x00, 0x1a, 0x14, 0x05, 0xe2, 0x07, 0x08,
  0x12, 0xe0, 0x14, 0x06, 0xfb, 0x21, 0xf8, 0x11, 0x00, 0xe5, 0x15, 0x11,
  0xf9, 0xe2, 0x0f, 0x13, 0xfc, 0xd7, 0xfe, 0x00, 0xfe, 0x1c, 0x07, 0x1d,
  0x0a, 0x02, 0x0c, 0x06, 0xf7, 0xdf, 0x0d, 0xe8, 0x00, 0xd1, 0x0a, 0x08,
  0xf9, 0x1c, 0x00, 0xf9, 0xf7, 0x00, 0x0f, 0x11, 0x01, 0xe6, 0x06, 0x04,
  0xfc, 0xed, 0xf9, 0x07, 0x0c, 0x04, 0xf6, 0xe3, 0xf6, 0xe2, 0x06, 0x11,
  0xf0, 0xe1, 0xf3, 0xfc, 0x19, 0xe3, 0xec, 0x03, 0xf9, 0xf7, 0x06, 0xed,
  0x12, 0xfa, 0xea, 0xda, 0xd9, 0xe6, 0xfe, 0x04, 0xf8, 0xce, 0x05, 0xeb,
  0xe3, 0xee, 0xf0, 0xf4, 0x19, 0x05, 0xf8, 0x0f, 0xff, 0xe9, 0x14, 0xf8,
  0xf9, 0xd9, 0xf1, 0xfb, 0x00, 0xfd, 0x0a, 0x12, 0x01, 0xee, 0x04, 0x02,
  0xe6, 0xf2, 0x07, 0x15, 0xf1, 0xbf, 0xe4, 0x03, 0x04, 0xe7, 0x0b, 0x10,
  0x05, 0xf5, 0xed, 0xd9, 0xe2, 0xef, 0xe9, 0x0c, 0xf4, 0xe6, 0x1c, 0xfd,
  0xe7, 0xee, 0x0a, 0x04, 0xf5, 0xf5, 0x00, 0x0c, 0x18, 0xf6, 0xfa, 0x02,
  0x25, 0xdb, 0x28, 0xfd, 0xe2, 0xfc, 0xf9, 0x1f, 0xe4, 0xf5, 0x00, 0x14,
  0x08, 0x02, 0x00, 0xee, 0x1b, 0x0e, 0x16, 0x01, 0xf2, 0x0f, 0x0b, 0x0f,
  0x0d, 0x08, 0xfd, 0x02, 0x15, 0x08, 0x16, 0xf4, 0x11, 0x2f, 0x25, 0x05,
  0x0a, 0x07, 0x04, 0xfe, 0xf3, 0x01, 0xe5, 0xe9, 0x02, 0x01, 0xf2, 0xc2,
  0xfe, 0x0f, 0xeb, 0xef, 0x23, 0x12, 0x07, 0x17, 0xe2, 0x11, 0xd7, 0xe2,
  0x3a, 0xf8, 0x01, 0x1e, 0x07, 0xf6, 0xf1, 0xd6, 0xf5, 0xfe, 0xf4, 0x17,
  0xe4, 0x25, 0xdb, 0xea, 0x51, 0xfa, 0x1f, 0x0c, 0x09, 0xf9, 0xfe, 0xff,
  0xf7, 0x30, 0x04, 0x00, 0xf8, 0x20, 0xe1, 0xd8, 0x36, 0x02, 0x0f, 0x09,
  0x0e, 0x01, 0x00, 0xdf, 0x08, 0x20, 0x01, 0x12, 0x02, 0x15, 0xd5, 0xc6,
  0x25, 0x05, 0x1e, 0x09, 0xed, 0x03, 0xff, 0xe5, 0x1c, 0x11, 0x03, 0xfd,
  0xe9, 0x2b, 0xf0, 0xf3, 0x09, 0xfb, 0xf9, 0x0a, 0xfc, 0xf3, 0x03, 0xea,
  0x20, 0x0f, 0xf7, 0xfd, 0xef, 0x05, 0x05, 0xf6, 0x16, 0x02, 0xf2, 0x06,
  0xf8, 0xfa, 0xef, 0xfe, 0xf1, 0xfc, 0x00, 0xfe, 0xfc, 0x0b, 0xeb, 0x0a,
  0x03, 0xe5, 0xec, 0x16, 0x08, 0xfa, 0x02, 0xee, 0x09, 0xfd, 0x0d, 0x3d,
  0xfb, 0x09, 0xf8, 0x06, 0x5e, 0xdf, 0xf6, 0x69, 0xed, 0x01, 0x0e, 0xfd,
  0xf0, 0xfb, 0xf3, 0x2a, 0x09, 0xf7, 0xf6, 0xf8, 0x64, 0xd0, 0xe6, 0x73,
  0x05, 0xf2, 0x0c, 0xe1, 0xf9, 0x04, 0x04, 0x1f, 0x11, 0x00, 0xec, 0xed,
  0x54, 0xee, 0xd4, 0x5d, 0xf0, 0xe7, 0x00, 0xe5, 0xff, 0x04, 0xf8, 0x2f,
  0x0f, 0xfc, 0xde, 0x02, 0x48, 0xd1, 0x01, 0x1d, 0xf6, 0xf4, 0xf4, 0x06,
  0xf8, 0xf6, 0x17, 0x2f, 0xeb, 0xf8, 0xe9, 0x02, 0x02, 0xd9, 0xf7, 0x18,
  0xe6, 0xf9, 0xeb, 0xe3, 0xe4, 0xf4, 0x0f, 0x1f, 0xe6, 0xe8, 0xe9, 0x08,
  0x33, 0xdf, 0xe5, 0x2f, 0xf8, 0xfa, 0xf8, 0xda, 0x02, 0xe0, 0xf6, 0x18,
  0xe3, 0xef, 0xfc, 0x18, 0x08, 0x07, 0x16, 0xe5, 0x32, 0xf0, 0x18, 0x10,
  0xe4, 0x0a, 0xd0, 0xe9, 0xfc, 0x0f, 0xf5, 0xe6, 0x06, 0xff, 0x1e, 0xd8,
  0xfa, 0x07, 0x20, 0x06, 0x1b, 0x09, 0xf4, 0x11, 0x0b, 0x0a, 0xf6, 0xf1,
  0xda, 0xfe, 0x0c, 0x08, 0xed, 0x0a, 0x03, 0xff, 0x33, 0xe9, 0x0f, 0x1b,
  0x06, 0xf5, 0xff, 0x05, 0xe1, 0xff, 0xc9, 0xf4, 0x01, 0x05, 0xdf, 0x02,
  0x10, 0xbb, 0x00, 0x1c, 0x03, 0xf1, 0xfa, 0x04, 0xf8, 0xfe, 0xdc, 0xf8,
  0xf3, 0x01, 0xe8, 0xf2, 0x04, 0xeb, 0x08, 0xfc, 0x0b, 0xfc, 0xfc, 0xff,
  0xe0, 0xfd, 0xe7, 0x0a, 0xf2, 0x03, 0xec, 0xff, 0x0b, 0xe0, 0xf7, 0x0e,
  0xf3, 0xf9, 0xff, 0xf5, 0xf9, 0xfa, 0xea, 0xff, 0xf2, 0xf7, 0xcf, 0x03,
  0x06, 0xf1, 0xed, 0xff, 0x0e, 0xed, 0xff, 0x09, 0xec, 0xed, 0xfd, 0x0c,
  0xee, 0x00, 0xee, 0xf9, 0xf9, 0x04, 0x0a, 0xec, 0x08, 0x08, 0xea, 0xfa,
  0x03, 0xec, 0x03, 0x07, 0xf6, 0xfa, 0x00, 0xe2, 0x09, 0xec, 0xf7, 0x07,
  0xec, 0x01, 0x11, 0x01, 0xfb, 0xdf, 0xe3, 0x04, 0xec, 0xe9, 0x05, 0x08,
  0xe5, 0x07, 0x0e, 0xf8, 0x06, 0x10, 0x09, 0xf8, 0xea, 0xe5, 0xff, 0xfa,
  0x0a, 0x06, 0x12, 0xf7, 0x0b, 0x01, 0xe8, 0x02, 0x0d, 0xfc, 0x01, 0xed,
  0xf5, 0xe3, 0xfb, 0xf5, 0xfb, 0x05, 0x02, 0xeb, 0x0f, 0xf0, 0x0a, 0xec,
  0xfb, 0xf3, 0xfb, 0xf7, 0xf7, 0xe1, 0xfe, 0xfd, 0xff, 0xff, 0xec, 0xf0,
  0x0f, 0xef, 0x09, 0x12, 0x00, 0x11, 0xf2, 0x02, 0xf7, 0xe6, 0xee, 0xf8,
  0x0d, 0xe5, 0xf1, 0x04, 0x0c, 0xf1, 0x16, 0x10, 0xd5, 0x28, 0xec, 0xf7,
  0x07, 0x02, 0xf0, 0xce, 0xf6, 0x04, 0xec, 0xed, 0x25, 0x07, 0xef, 0x0f,
  0xf5, 0xf6, 0xe3, 0xe4, 0x21, 0xfa, 0xf1, 0x26, 0x14, 0xed, 0xf7, 0xf6,
  0x08, 0x13, 0xe4, 0xf6, 0xeb, 0x24, 0xe6, 0x05, 0x30, 0xff, 0x06, 0x1a,
  0x05, 0xf0, 0x1c, 0x01, 0xf3, 0x08, 0xfa, 0x00, 0xf4, 0x1c, 0xfa, 0xe9,
  0x22, 0x01, 0x11, 0x12, 0x08, 0x05, 0x07, 0xf6, 0x05, 0x20, 0xf0, 0x05,
  0xe2, 0x20, 0xf2, 0xdd, 0x11, 0x01, 0x1a, 0x14, 0xed, 0x0c, 0xf9, 0xde,
  0x21, 0xed, 0xfb, 0x16, 0xf5, 0x0e, 0xde, 0xd6, 0x16, 0x01, 0x0e, 0x0b,
  0xf0, 0x02, 0x11, 0xf1, 0x26, 0x1b, 0xea, 0x21, 0x18, 0x18, 0xf2, 0xf5,
  0x1b, 0xfc, 0xfd, 0x05, 0x05, 0x00, 0xeb, 0xe7, 0xf8, 0x03, 0xf9, 0xf9,
  0x00, 0xf1, 0xf9, 0xf9, 0xe2, 0xf2, 0xed, 0x05, 0xfd, 0xdd, 0x00, 0xfc,
  0xff, 0x00, 0xf9, 0x0a, 0x06, 0xf8, 0xff, 0xeb, 0xec, 0xf5, 0x05, 0x07,
  0xfd, 0xdd, 0x01, 0xf2, 0x03, 0x03, 0xfd, 0x19, 0x0e, 0xe9, 0xfc, 0x18,
  0xeb, 0xf9, 0x0a, 0xe8, 0xf7, 0xf4, 0xee, 0x05, 0x03, 0xf4, 0xf3, 0x02,
  0x04, 0xf7, 0xeb, 0xee, 0xf1, 0xf1, 0xed, 0x08, 0xf1, 0xdb, 0x05, 0xfd,
  0xed, 0xf1, 0x04, 0x02, 0xfa, 0xed, 0x0b, 0x0e, 0xff, 0xf1, 0xef, 0xfe,
  0x14, 0xf5, 0x13, 0xf7, 0x09, 0x05, 0x10, 0x12, 0x01, 0xfa, 0x02, 0xff,
  0x18, 0x0e, 0x16, 0xff, 0x22, 0x0c, 0xf6, 0x11, 0xf7, 0x01, 0x03, 0xfe,
  0xed, 0xfa, 0xf2, 0xf4, 0xfc, 0xf9, 0x00, 0x00, 0xeb, 0x03, 0xfa, 0xf9,
  0x11, 0x01, 0xfd, 0xf8, 0xfb, 0x1d, 0xdd, 0xd6, 0xf6, 0x00, 0xfa, 0x0a,
  0xde, 0x07, 0x02, 0xdf, 0x11, 0xfa, 0x10, 0x10, 0x0a, 0x02, 0xd7, 0xfb,
  0x26, 0x01, 0xf0, 0x07, 0x01, 0x04, 0xf4, 0xec, 0x00, 0x0c, 0x05, 0x03,
  0x00, 0x1c, 0xfe, 0x02, 0x40, 0x01, 0xfd, 0x03, 0xfa, 0x01, 0x12, 0xfa,
  0xed, 0x10, 0x07, 0x07, 0x0c, 0x47, 0x07, 0xfa, 0x31, 0x01, 0x15, 0xff,
  0x1b, 0xfd, 0xf8, 0x02, 0x0b, 0x2b, 0x03, 0x00, 0x18, 0x18, 0xea, 0xc6,
  0xfd, 0x02, 0x0e, 0xff, 0xf8, 0x02, 0xf4, 0xfe, 0x0f, 0x04, 0x08, 0xec,
  0x10, 0x1d, 0xe8, 0xe9, 0x08, 0xff, 0x05, 0x0e, 0xf0, 0x01, 0xf0, 0xd6,
  0x11, 0xff, 0x04, 0x0a, 0xf4, 0x13, 0xfc, 0xfb, 0xfa, 0x01, 0xf9, 0x13,
  0xf8, 0xfe, 0x02, 0xfd, 0xff, 0x01, 0x05, 0x03, 0xeb, 0x00, 0x05, 0x09,
  0x00, 0xdd, 0xed, 0x08, 0xeb, 0xe4, 0xfc, 0x0b, 0x18, 0xfb, 0xf4, 0x01,
  0x0a, 0xfb, 0x12, 0x1c, 0x11, 0xe7, 0x03, 0xe5, 0x10, 0xd8, 0x03, 0xe8,
  0xe8, 0x0d, 0xf2, 0x0e, 0xfa, 0x05, 0x1d, 0x16, 0x09, 0xdd, 0xfe, 0xeb,
  0xfd, 0xd6, 0x00, 0x0f, 0xf4, 0x1c, 0xfc, 0x00, 0x05, 0x06, 0x15, 0x0f,
  0xf8, 0xdb, 0xf2, 0x0c, 0x11, 0xe0, 0xf1, 0xfe, 0x04, 0x1a, 0xf5, 0xfd,
  0xec, 0x04, 0x0c, 0x09, 0x0d, 0xda, 0xfb, 0x01, 0x05, 0xdf, 0xea, 0x05,
  0xed, 0x0e, 0x0e, 0x0a, 0x05, 0xea, 0x16, 0x0b, 0xec, 0xe8, 0xe9, 0xfe,
  0xff, 0xe5, 0xfb, 0xf2, 0xf4, 0x08, 0x01, 0x0f, 0x15, 0xfc, 0x11, 0x03,
  0xf1, 0xe6, 0xe6, 0xe6, 0xfe, 0xf6, 0x02, 0xf7, 0xf5, 0xf3, 0xed, 0xef,
  0x14, 0xc6, 0xfb, 0xe9, 0xf2, 0xfe, 0xf0, 0x27, 0xc1, 0x04, 0xf6, 0xdd,
  0xd7, 0xb9, 0x49, 0x12, 0x0b, 0xfc, 0x01, 0x24, 0xd9, 0x08, 0xfd, 0x1f,
  0x23, 0x04, 0x05, 0xf6, 0xfc, 0xac, 0x45, 0xfa, 0x12, 0xed, 0x11, 0x1d,
  0xdd, 0x05, 0xfe, 0x20, 0x1c, 0x00, 0x1b, 0x00, 0x0e, 0xc6, 0x3f, 0xfb,
  0x0c, 0x0b, 0xf8, 0x01, 0xfc, 0x06, 0x0e, 0x1a, 0x39, 0x02, 0x00, 0xff,
  0xf2, 0xfb, 0x39, 0xe6, 0x0d, 0x06, 0x08, 0x17, 0xe1, 0x06, 0xf7, 0x15,
  0x1c, 0x02, 0xf7, 0x06, 0xf6, 0xd1, 0x2f, 0xfd, 0x1b, 0xe8, 0xe9, 0x07,
  0x9d, 0x05, 0xaf, 0x07, 0x18, 0x00, 0xdf, 0x03, 0xdc, 0x9c, 0x40, 0xf2,
  0xee, 0xf4, 0xfd, 0xef, 0xcb, 0x02, 0xfc, 0x2e, 0xf6, 0xfb, 0xf7, 0xfd,
  0x0e, 0x00, 0x1b, 0x33, 0x09, 0xf6, 0xef, 0xf2, 0xf7, 0xef, 0xf0, 0x16,
  0x03, 0xff, 0xfa, 0xe7, 0xfe, 0x01, 0x08, 0xf4, 0x11, 0x0b, 0xf3, 0xfb,
  0x00, 0xfc, 0xfc, 0x17, 0x15, 0xf7, 0xec, 0x10, 0x0a, 0xf9, 0x0d, 0x12,
  0x0b, 0x0b, 0x00, 0xf5, 0x02, 0xef, 0xed, 0xf9, 0xfd, 0xe8, 0xff, 0xf9,
  0xed, 0xff, 0xfe, 0x09, 0x00, 0x05, 0xeb, 0x07, 0xe4, 0xf8, 0xf0, 0xfb,
  0xf2, 0xf8, 0x03, 0x0c, 0xec, 0xfb, 0xff, 0x0e, 0xed, 0xec, 0xfb, 0xf4,
  0xec, 0xec, 0xf4, 0xf4, 0x0b, 0x06, 0xf8, 0xe8, 0xf4, 0x08, 0xfe, 0xef,
  0x05, 0xf2, 0xfc, 0x01, 0x06, 0xfc, 0xed, 0x0d, 0xf0, 0xf3, 0x20, 0xff,
  0xf0, 0x08, 0x1a, 0xf7, 0x00, 0xfd, 0xff, 0xfb, 0x07, 0xfa, 0x11, 0xfe,
  0x0f, 0x10, 0x22, 0x02, 0x02, 0x04, 0x02, 0xfa, 0x0d, 0xf8, 0xe4, 0xe6,
  0x0d, 0xd7, 0xe4, 0xf8, 0x0c, 0xf5, 0xe5, 0xea, 0xf5, 0xf3, 0xf3, 0x2f,
  0x10, 0xeb, 0xe1, 0xf6, 0x7f, 0xd7, 0xe6, 0x16, 0xf5, 0x02, 0xf1, 0xf7,
  0x05, 0xf8, 0xf4, 0x2c, 0x05, 0x06, 0xe9, 0xea, 0x74, 0xe6, 0xe3, 0x3c,
  0x06, 0xe6, 0xef, 0xe7, 0xf1, 0xe9, 0x0c, 0x31, 0x04, 0xeb, 0x03, 0xe6,
  0x74, 0xe4, 0xe3, 0x5f, 0x08, 0xdd, 0xef, 0xfa, 0xfb, 0xea, 0x23, 0x29,
  0xf4, 0x11, 0x03, 0xe9, 0x15, 0xee, 0x06, 0x1e, 0xf1, 0x02, 0x0c, 0xe8,
  0x0f, 0xd7, 0xf8, 0x3c, 0xec, 0xfe, 0xeb, 0xff, 0x0a, 0xea, 0x08, 0x2b,
  0x02, 0xf7, 0xee, 0xe5, 0xfd, 0xf7, 0xf2, 0x1e, 0xf8, 0xff, 0xe9, 0xff,
  0x0f, 0xf6, 0xe3, 0x41, 0xfb, 0xeb, 0xe7, 0xde, 0xf9, 0xde, 0xfd, 0xe2,
  0xfd, 0x04, 0x02, 0xfe, 0x10, 0xfe, 0x20, 0xe8, 0x2e, 0xf8, 0x0e, 0x0e,
  0xf4, 0x16, 0xf5, 0xe1, 0xf6, 0xed, 0xf6, 0xe1, 0xeb, 0xff, 0x1f, 0xde,
  0xd0, 0x02, 0x09, 0x0b, 0x0e, 0x08, 0xf7, 0x0a, 0x01, 0xff, 0xec, 0x03,
  0xf3, 0xfc, 0x0b, 0x10, 0xf9, 0x04, 0xe6, 0xf8, 0x22, 0xdd, 0x15, 0xfd,
  0xfa, 0x12, 0xd2, 0xf3, 0xcf, 0xfa, 0xd8, 0x00, 0xdf, 0xfe, 0xef, 0xf2,
  0xfb, 0xc6, 0xf1, 0xfa, 0x01, 0x02, 0xfd, 0x00, 0x08, 0xfc, 0xf7, 0x00,
  0xfb, 0x01, 0x17, 0xee, 0x06, 0xe9, 0x07, 0x14, 0xb6, 0xfc, 0x04, 0x08,
  0x0f, 0xf9, 0xf8, 0xeb, 0x0b, 0xfc, 0x16, 0xfa, 0xe6, 0x07, 0xec, 0x16,
  0x10, 0xfa, 0x02, 0x0c, 0x16, 0x00, 0x07, 0xd2, 0x05, 0x01, 0x0e, 0x02,
  0xee, 0x06, 0x0d, 0xde, 0xde, 0xfd, 0xff, 0xff, 0x04, 0x00, 0x00, 0x00,
  0x20, 0x00, 0x00, 0x00, 0xd3, 0x5e, 0x1b, 0xc0, 0xa9, 0xbe, 0x6a, 0xbf,
  0x44, 0x9a, 0x1a, 0xc0, 0x78, 0x16, 0x2b, 0xc0, 0x41, 0x26, 0xf5, 0xbf,
  0x9c, 0x0f, 0x9f, 0xbf, 0xc9, 0xfb, 0xe3, 0xbe, 0x99, 0xc9, 0x85, 0xbd,
  0x0a, 0xfe, 0xff, 0xff, 0x04, 0x00, 0x00, 0x00, 0x40, 0x00, 0x00, 0x00,
  0xd0, 0xae, 0x10, 0xbf, 0x85, 0xc0, 0xa1, 0xbf, 0x31, 0x37, 0xff, 0xbe,
  0x04, 0x35, 0x44, 0xbf, 0xc3, 0xd8, 0x06, 0x40, 0xb5, 0xed, 0x8c, 0x3e,
  0x33, 0xfc, 0xe8, 0xbf, 0x80, 0x8c, 0x16, 0x3f, 0x37, 0xa2, 0x0e, 0xc0,
  0x8b, 0xff, 0x83, 0x3d, 0x43, 0x51, 0x8a, 0xbf, 0xdd, 0xf2, 0x6c, 0xbf,
  0x54, 0xf8, 0x1d, 0xbf, 0xb9, 0x11, 0x91, 0xbf, 0x63, 0x97, 0x68, 0xbc,
  0x71, 0x70, 0xff, 0x3e, 0x56, 0xfe, 0xff, 0xff, 0x04, 0x00, 0x00, 0x00,
  0x0c, 0x00, 0x00, 0x00, 0x45, 0xca, 0x43, 0xc0, 0xa4, 0x5d, 0x37, 0xbf,
  0xcd, 0xc3, 0x0c, 0x40, 0x6e, 0xfe, 0xff, 0xff, 0x04, 0x00, 0x00, 0x00,
  0xc0, 0x00, 0x00, 0x00, 0x0d, 0xf0, 0xb9, 0x3e, 0x46, 0x43, 0x08, 0xbe,
  0x73, 0x3e, 0x61, 0x3d, 0xb3, 0xc1, 0xe1, 0xbd, 0xa5, 0x76, 0xfa, 0x3e,
  0xcd, 0xc9, 0x20, 0x3f, 0x1b, 0xe5, 0x9c, 0x3d, 0x44, 0x77, 0xa2, 0xbe,
  0xf1, 0xd8, 0xde, 0x3e, 0x3d, 0x75, 0x9b, 0x3e, 0x88, 0x33, 0xa2, 0x3e,
  0xf7, 0x64, 0x67, 0x3e, 0x6d, 0xe3, 0x94, 0x3a, 0x4e, 0x53, 0x8e, 0x3e,
  0x6e, 0xef, 0x5b, 0x3e, 0x6a, 0x8c, 0xde, 0xbe, 0x78, 0x93, 0xa1, 0x3e,
  0x41, 0xb5, 0xa4, 0xbd, 0xe1, 0x56, 0x78, 0xbc, 0x3b, 0x88, 0xb1, 0x3c,
  0x91, 0x1b, 0xdf, 0x3e, 0x62, 0x3b, 0x2f, 0xbf, 0x57, 0xf7, 0x10, 0x3e,
  0x33, 0x67, 0x3e, 0x3e, 0x3c, 0x2a, 0xcf, 0x3e, 0x98, 0xf9, 0xd3, 0x3e,
  0x7c, 0x56, 0xc8, 0x3d, 0x5d, 0x21, 0x3c, 0xbd, 0xbc, 0x82, 0xf4, 0x3b,
  0xa1, 0x82, 0xbf, 0x3e, 0xa3, 0xb6, 0x4d, 0xbf, 0x32, 0x05, 0xd5, 0xbe,
  0x59, 0x15, 0x95, 0x3e, 0x37, 0x1d, 0x04, 0xbd, 0x65, 0x6a, 0xc3, 0x3d,
  0x04, 0x23, 0xab, 0xbc, 0xf7, 0x6c, 0xe7, 0x3e, 0xaf, 0x93, 0xd0, 0xbe,
  0x93, 0x23, 0x83, 0x3d, 0x59, 0x51, 0xf7, 0xbe, 0x40, 0x90, 0xbf, 0x3e,
  0x8b, 0x04, 0xd7, 0x3c, 0xa1, 0x71, 0x8f, 0x3e, 0x49, 0xdf, 0x9f, 0x3e,
  0xf8, 0x84, 0x93, 0x3d, 0xf7, 0x18, 0x9c, 0x3e, 0xbf, 0x41, 0xa2, 0xbf,
  0xea, 0x89, 0x00, 0xbf, 0x3a, 0xff, 0xff, 0xff, 0x04, 0x00, 0x00, 0x00,
  0x40, 0x00, 0x00, 0x00, 0xb4, 0x16, 0xb2, 0xbe, 0xbb, 0x4c, 0xcb, 0xbe,
  0xbb, 0x58, 0x54, 0x3c, 0xf4, 0x47, 0xcf, 0xbe, 0xc5, 0x6b, 0xcb, 0x3d,
  0xed, 0x89, 0x03, 0x40, 0xb3, 0x41, 0xd1, 0xbf, 0x52, 0x47, 0x35, 0xbe,
  0x9e, 0xaa, 0x71, 0xbc, 0x21, 0x70, 0xa2, 0xbe, 0x41, 0xe5, 0x27, 0x40,
  0x7d, 0x04, 0x2d, 0xbe, 0xfd, 0x98, 0x61, 0x40, 0x9a, 0xca, 0x19, 0xbe,
  0xe0, 0x94, 0x2c, 0x40, 0x77, 0x55, 0xd8, 0xbf, 0x40, 0xf8, 0xff, 0xff,
  0x0f, 0x00, 0x00, 0x00, 0x54, 0x4f, 0x43, 0x4f, 0x20, 0x43, 0x6f, 0x6e,
  0x76, 0x65, 0x72, 0x74, 0x65, 0x64, 0x2e, 0x00, 0x01, 0x00, 0x00, 0x00,
  0x10, 0x00, 0x00, 0x00, 0x0c, 0x00, 0x14, 0x00, 0x04, 0x00, 0x08, 0x00,
  0x0c, 0x00, 0x10, 0x00, 0x0c, 0x00, 0x00, 0x00, 0x4c, 0x02, 0x00, 0x00,
  0x40, 0x02, 0x00, 0x00, 0x34, 0x02, 0x00, 0x00, 0x04, 0x00, 0x00, 0x00,
  0x07, 0x00, 0x00, 0x00, 0xd4, 0x01, 0x00, 0x00, 0x70, 0x01, 0x00, 0x00,
  0x24, 0x01, 0x00, 0x00, 0xc4, 0x00, 0x00, 0x00, 0x88, 0x00, 0x00, 0x00,
  0x40, 0x00, 0x00, 0x00, 0x04, 0x00, 0x00, 0x00, 0x56, 0xfe, 0xff, 0xff,
  0x00, 0x00, 0x00, 0x09, 0x04, 0x00, 0x00, 0x00, 0x24, 0x00, 0x00, 0x00,
  0x18, 0x00, 0x00, 0x00, 0x0c, 0x00, 0x00, 0x00, 0x00, 0x00, 0x06, 0x00,
  0x08, 0x00, 0x04, 0x00, 0x06, 0x00, 0x00, 0x00, 0x00, 0x00, 0x80, 0x3f,
  0x01, 0x00, 0x00, 0x00, 0x00, 0x00, 0x00, 0x00, 0x01, 0x00, 0x00, 0x00,
  0x0b, 0x00, 0x00, 0x00, 0xca, 0xff, 0xff, 0xff, 0x00, 0x00, 0x00, 0x08,
  0x02, 0x00, 0x00, 0x00, 0x18, 0x00, 0x00, 0x00, 0x0c, 0x00, 0x00, 0x00,
  0x04, 0x00, 0x00, 0x00, 0xf0, 0xf8, 0xff, 0xff, 0x01, 0x00, 0x00, 0x00,
  0x0b, 0x00, 0x00, 0x00, 0x03, 0x00, 0x00, 0x00, 0x0a, 0x00, 0x00, 0x00,
  0x0c, 0x00, 0x00, 0x00, 0x0d, 0x00, 0x00, 0x00, 0x00, 0x00, 0x0e, 0x00,
  0x18, 0x00, 0x08, 0x00, 0x0c, 0x00, 0x10, 0x00, 0x07, 0x00, 0x14, 0x00,
  0x0e, 0x00, 0x00, 0x00, 0x00, 0x00, 0x00, 0x08, 0x02, 0x00, 0x00, 0x00,
  0x1c, 0x00, 0x00, 0x00, 0x10, 0x00, 0x00, 0x00, 0x04, 0x00, 0x00, 0x00,
  0xf6, 0xf8, 0xff, 0xff, 0x00, 0x00, 0x00, 0x01, 0x01, 0x00, 0x00, 0x00,
  0x0a, 0x00, 0x00, 0x00, 0x03, 0x00, 0x00, 0x00, 0x0f, 0x00, 0x00, 0x00,
  0x08, 0x00, 0x00, 0x00, 0x09, 0x00, 0x00, 0x00, 0x0a, 0xff, 0xff, 0xff,
  0x00, 0x00, 0x00, 0x05, 0x03, 0x00, 0x00, 0x00, 0x38, 0x00, 0x00, 0x00,
  0x2c, 0x00, 0x00, 0x00, 0x14, 0x00, 0x00, 0x00, 0x00, 0x00, 0x0e, 0x00,
  0x14, 0x00, 0x00, 0x00, 0x04, 0x00, 0x08, 0x00, 0x0c, 0x00, 0x10, 0x00,
  0x0e, 0x00, 0x00, 0x00, 0x01, 0x00, 0x00, 0x00, 0x03, 0x00, 0x00, 0x00,
  0x01, 0x00, 0x00, 0x00, 0x03, 0x00, 0x00, 0x00, 0x01, 0x00, 0x00, 0x00,
  0x0f, 0x00, 0x00, 0x00, 0x01, 0x00, 0x00, 0x00, 0x07, 0x00, 0x00, 0x00,
  0x00, 0x00, 0x0e, 0x00, 0x14, 0x00, 0x00, 0x00, 0x08, 0x00, 0x0c, 0x00,
  0x07, 0x00, 0x10, 0x00, 0x0e, 0x00, 0x00, 0x00, 0x00, 0x00, 0x00, 0x01,
  0x30, 0x00, 0x00, 0x00, 0x24, 0x00, 0x00, 0x00, 0x10, 0x00, 0x00, 0x00,
  0x0c, 0x00, 0x10, 0x00, 0x00, 0x00, 0x08, 0x00, 0x0c, 0x00, 0x07, 0x00,
  0x0c, 0x00, 0x00, 0x00, 0x00, 0x00, 0x00, 0x01, 0x01, 0x00, 0x00, 0x00,
  0x01, 0x00, 0x00, 0x00, 0x01, 0x00, 0x00, 0x00, 0x07, 0x00, 0x00, 0x00,
  0x03, 0x00, 0x00, 0x00, 0x0e, 0x00, 0x00, 0x00, 0x05, 0x00, 0x00, 0x00,
  0x06, 0x00, 0x00, 0x00, 0xae, 0xff, 0xff, 0xff, 0x00, 0x00, 0x00, 0x05,
  0x03, 0x00, 0x00, 0x00, 0x3c, 0x00, 0x00, 0x00, 0x30, 0x00, 0x00, 0x00,
  0x14, 0x00, 0x00, 0x00, 0x00, 0x00, 0x0e, 0x00, 0x18, 0x00, 0x07, 0x00,
  0x08, 0x00, 0x0c, 0x00, 0x10, 0x00, 0x14, 0x00, 0x0e, 0x00, 0x00, 0x00,
  0x00, 0x00, 0x00, 0x01, 0x03, 0x00, 0x00, 0x00, 0x03, 0x00, 0x00, 0x00,
  0x03, 0x00, 0x00, 0x00, 0x03, 0x00, 0x00, 0x00, 0x01, 0x00, 0x00, 0x00,
  0x0e, 0x00, 0x00, 0x00, 0x01, 0x00, 0x00, 0x00, 0x04, 0x00, 0x00, 0x00,
  0x00, 0x00, 0x0e, 0x00, 0x1a, 0x00, 0x08, 0x00, 0x0c, 0x00, 0x10, 0x00,
  0x07, 0x00, 0x14, 0x00, 0x0e, 0x00, 0x00, 0x00, 0x00, 0x00, 0x00, 0x02,
  0x01, 0x00, 0x00, 0x00, 0x38, 0x00, 0x00, 0x00, 0x2c, 0x00, 0x00, 0x00,
  0x14, 0x00, 0x00, 0x00, 0x00, 0x00, 0x0e, 0x00, 0x14, 0x00, 0x00, 0x00,
  0x08, 0x00, 0x0c, 0x00, 0x10, 0x00, 0x07, 0x00, 0x0e, 0x00, 0x00, 0x00,
  0x00, 0x00, 0x00, 0x01, 0x01, 0x00, 0x00, 0x00, 0x01, 0x00, 0x00, 0x00,
  0x08, 0x00, 0x00, 0x00, 0x01, 0x00, 0x00, 0x00, 0x04, 0x00, 0x00, 0x00,
  0x03, 0x00, 0x00, 0x00, 0x01, 0x00, 0x00, 0x00, 0x02, 0x00, 0x00, 0x00,
  0x03, 0x00, 0x00, 0x00, 0x01, 0x00, 0x00, 0x00, 0x00, 0x00, 0x00, 0x00,
  0x01, 0x00, 0x00, 0x00, 0x01, 0x00, 0x00, 0x00, 0x10, 0x00, 0x00, 0x00,
  0x2c, 0x05, 0x00, 0x00, 0xb8, 0x04, 0x00, 0x00, 0x5c, 0x04, 0x00, 0x00,
  0x14, 0x04, 0x00, 0x00, 0xc8, 0x03, 0x00, 0x00, 0x68, 0x03, 0x00, 0x00,
  0x20, 0x03, 0x00, 0x00, 0xd0, 0x02, 0x00, 0x00, 0x40, 0x02, 0x00, 0x00,
  0xe8, 0x01, 0x00, 0x00, 0xa4, 0x01, 0x00, 0x00, 0x5c, 0x01, 0x00, 0x00,
  0xfc, 0x00, 0x00, 0x00, 0xb4, 0x00, 0x00, 0x00, 0x5c, 0x00, 0x00, 0x00,
  0x04, 0x00, 0x00, 0x00, 0x22, 0xfb, 0xff, 0xff, 0x3c, 0x00, 0x00, 0x00,
  0x0a, 0x00, 0x00, 0x00, 0x0c, 0x00, 0x00, 0x00, 0x04, 0x00, 0x00, 0x00,
  0x14, 0xfb, 0xff, 0xff, 0x22, 0x00, 0x00, 0x00, 0x73, 0x65, 0x71, 0x75,
  0x65, 0x6e, 0x74, 0x69, 0x61, 0x6c, 0x2f, 0x6d, 0x61, 0x78, 0x5f, 0x70,
  0x6f, 0x6f, 0x6c, 0x69, 0x6e, 0x67, 0x32, 0x64, 0x5f, 0x31, 0x2f, 0x4d,
  0x61, 0x78, 0x50, 0x6f, 0x6f, 0x6c, 0x00, 0x00, 0x04, 0x00, 0x00, 0x00,
  0x01, 0x00, 0x00, 0x00, 0x07, 0x00, 0x00, 0x00, 0x01, 0x00, 0x00, 0x00,
  0x10, 0x00, 0x00, 0x00, 0x76, 0xfb, 0xff, 0xff, 0x3c, 0x00, 0x00, 0x00,
  0x10, 0x00, 0x00, 0x00, 0x0c, 0x00, 0x00, 0x00, 0x04, 0x00, 0x00, 0x00,
  0x68, 0xfb, 0xff, 0xff, 0x20, 0x00, 0x00, 0x00, 0x73, 0x65, 0x71, 0x75,
  0x65, 0x6e, 0x74, 0x69, 0x61, 0x6c, 0x2f, 0x6d, 0x61, 0x78, 0x5f, 0x70,
  0x6f, 0x6f, 0x6c, 0x69, 0x6e, 0x67, 0x32, 0x64, 0x2f, 0x4d, 0x61, 0x78,
  0x50, 0x6f, 0x6f, 0x6c, 0x00, 0x00, 0x00, 0x00, 0x04, 0x00, 0x00, 0x00,
  0x01, 0x00, 0x00, 0x00, 0x15, 0x00, 0x00, 0x00, 0x01, 0x00, 0x00, 0x00,
  0x08, 0x00, 0x00, 0x00, 0xca, 0xfb, 0xff, 0xff, 0x38, 0x00, 0x00, 0x00,
  0x03, 0x00, 0x00, 0x00, 0x0c, 0x00, 0x00, 0x00, 0x04, 0x00, 0x00, 0x00,
  0xbc, 0xfb, 0xff, 0xff, 0x1e, 0x00, 0x00, 0x00, 0x73, 0x65, 0x71, 0x75,
  0x65, 0x6e, 0x74, 0x69, 0x61, 0x6c, 0x2f, 0x64, 0x65, 0x6e, 0x73, 0x65,
  0x5f, 0x31, 0x2f, 0x4d, 0x61, 0x74, 0x4d, 0x75, 0x6c, 0x5f, 0x62, 0x69,
  0x61, 0x73, 0x00, 0x00, 0x01, 0x00, 0x00, 0x00, 0x03, 0x00, 0x00, 0x00,
  0x0e, 0xfc, 0xff, 0xff, 0x4c, 0x00, 0x00, 0x00, 0x02, 0x00, 0x00, 0x00,
  0x0c, 0x00, 0x00, 0x00, 0x04, 0x00, 0x00, 0x00, 0x00, 0xfc, 0xff, 0xff,
  0x32, 0x00, 0x00, 0x00, 0x73, 0x65, 0x71, 0x75, 0x65, 0x6e, 0x74, 0x69,
  0x61, 0x6c, 0x2f, 0x64, 0x65, 0x6e, 0x73, 0x65, 0x5f, 0x31, 0x2f, 0x4d,
  0x61, 0x74, 0x4d, 0x75, 0x6c, 0x2f, 0x52, 0x65, 0x61, 0x64, 0x56, 0x61,
  0x72, 0x69, 0x61, 0x62, 0x6c, 0x65, 0x4f, 0x70, 0x2f, 0x74, 0x72, 0x61,
  0x6e, 0x73, 0x70, 0x6f, 0x73, 0x65, 0x00, 0x00, 0x02, 0x00, 0x00, 0x00,
  0x03, 0x00, 0x00, 0x00, 0x10, 0x00, 0x00, 0x00, 0x6a, 0xfc, 0xff, 0xff,
  0x34, 0x00, 0x00, 0x00, 0x08, 0x00, 0x00, 0x00, 0x0c, 0x00, 0x00, 0x00,
  0x04, 0x00, 0x00, 0x00, 0x5c, 0xfc, 0xff, 0xff, 0x1a, 0x00, 0x00, 0x00,
  0x73, 0x65, 0x71, 0x75, 0x65, 0x6e, 0x74, 0x69, 0x61, 0x6c, 0x2f, 0x64,
  0x65, 0x6e, 0x73, 0x65, 0x5f, 0x31, 0x2f, 0x42, 0x69, 0x61, 0x73, 0x41,
  0x64, 0x64, 0x00, 0x00, 0x02, 0x00, 0x00, 0x00, 0x01, 0x00, 0x00, 0x00,
  0x03, 0x00, 0x00, 0x00, 0xae, 0xfc, 0xff, 0xff, 0x30, 0x00, 0x00, 0x00,
  0x09, 0x00, 0x00, 0x00, 0x0c, 0x00, 0x00, 0x00, 0x04, 0x00, 0x00, 0x00,
  0xa0, 0xfc, 0xff, 0xff, 0x15, 0x00, 0x00, 0x00, 0x73, 0x65, 0x71, 0x75,
  0x65, 0x6e, 0x74, 0x69, 0x61, 0x6c, 0x2f, 0x64, 0x65, 0x6e, 0x73, 0x65,
  0x2f, 0x52, 0x65, 0x6c, 0x75, 0x00, 0x00, 0x00, 0x02, 0x00, 0x00, 0x00,
  0x01, 0x00, 0x00, 0x00, 0x10, 0x00, 0x00, 0x00, 0xee, 0xfc, 0xff, 0xff,
  0x38, 0x00, 0x00, 0x00, 0x01, 0x00, 0x00, 0x00, 0x0c, 0x00, 0x00, 0x00,
  0x04, 0x00, 0x00, 0x00, 0xe0, 0xfc, 0xff, 0xff, 0x1c, 0x00, 0x00, 0x00,
  0x73, 0x65, 0x71, 0x75, 0x65, 0x6e, 0x74, 0x69, 0x61, 0x6c, 0x2f, 0x64,
  0x65, 0x6e, 0x73, 0x65, 0x2f, 0x4d, 0x61, 0x74, 0x4d, 0x75, 0x6c, 0x5f,
  0x62, 0x69, 0x61, 0x73, 0x00, 0x00, 0x00, 0x00, 0x01, 0x00, 0x00, 0x00,
  0x10, 0x00, 0x00, 0x00, 0x00, 0x00, 0x0e, 0x00, 0x18, 0x00, 0x08, 0x00,
  0x07, 0x00, 0x0c, 0x00, 0x10, 0x00, 0x14, 0x00, 0x0e, 0x00, 0x00, 0x00,
  0x00, 0x00, 0x00, 0x09, 0x78, 0x00, 0x00, 0x00, 0x06, 0x00, 0x00, 0x00,
  0x38, 0x00, 0x00, 0x00, 0x10, 0x00, 0x00, 0x00, 0x0c, 0x00, 0x0c, 0x00,
  0x00, 0x00, 0x00, 0x00, 0x04, 0x00, 0x08, 0x00, 0x0c, 0x00, 0x00, 0x00,
  0x18, 0x00, 0x00, 0x00, 0x04, 0x00, 0x00, 0x00, 0x01, 0x00, 0x00, 0x00,
  0x00, 0x00, 0x00, 0x00, 0x00, 0x00, 0x00, 0x00, 0x00, 0x00, 0x00, 0x00,
  0x01, 0x00, 0x00, 0x00, 0x6e, 0xf4, 0x1f, 0x3c, 0x30, 0x00, 0x00, 0x00,
  0x73, 0x65, 0x71, 0x75, 0x65, 0x6e, 0x74, 0x69, 0x61, 0x6c, 0x2f, 0x64,
  0x65, 0x6e, 0x73, 0x65, 0x2f, 0x4d, 0x61, 0x74, 0x4d, 0x75, 0x6c, 0x2f,
  0x52, 0x65, 0x61, 0x64, 0x56, 0x61, 0x72, 0x69, 0x61, 0x62, 0x6c, 0x65,
  0x4f, 0x70, 0x2f, 0x74, 0x72, 0x61, 0x6e, 0x73, 0x70, 0x6f, 0x73, 0x65,
  0x00, 0x00, 0x00, 0x00, 0x02, 0x00, 0x00, 0x00, 0x10, 0x00, 0x00, 0x00,
  0x70, 0x00, 0x00, 0x00, 0xce, 0xfd, 0xff, 0xff, 0x34, 0x00, 0x00, 0x00,
  0x0b, 0x00, 0x00, 0x00, 0x0c, 0x00, 0x00, 0x00, 0x04, 0x00, 0x00, 0x00,
  0xc0, 0xfd, 0xff, 0xff, 0x18, 0x00, 0x00, 0x00, 0x73, 0x65, 0x71, 0x75,
  0x65, 0x6e, 0x74, 0x69, 0x61, 0x6c, 0x2f, 0x63, 0x6f, 0x6e, 0x76, 0x32,
  0x64, 0x5f, 0x31, 0x2f, 0x52, 0x65, 0x6c, 0x75, 0x00, 0x00, 0x00, 0x00,
  0x04, 0x00, 0x00, 0x00, 0x01, 0x00, 0x00, 0x00, 0x15, 0x00, 0x00, 0x00,
  0x01, 0x00, 0x00, 0x00, 0x10, 0x00, 0x00, 0x00, 0x1a, 0xfe, 0xff, 0xff,
  0x38, 0x00, 0x00, 0x00, 0x04, 0x00, 0x00, 0x00, 0x0c, 0x00, 0x00, 0x00,
  0x04, 0x00, 0x00, 0x00, 0x0c, 0xfe, 0xff, 0xff, 0x1f, 0x00, 0x00, 0x00,
  0x73, 0x65, 0x71, 0x75, 0x65, 0x6e, 0x74, 0x69, 0x61, 0x6c, 0x2f, 0x63,
  0x6f, 0x6e, 0x76, 0x32, 0x64, 0x5f, 0x31, 0x2f, 0x43, 0x6f, 0x6e, 0x76,
  0x32, 0x44, 0x5f, 0x62, 0x69, 0x61, 0x73, 0x00, 0x01, 0x00, 0x00, 0x00,
  0x10, 0x00, 0x00, 0x00, 0x5e, 0xfe, 0xff, 0xff, 0x44, 0x00, 0x00, 0x00,
  0x0d, 0x00, 0x00, 0x00, 0x0c, 0x00, 0x00, 0x00, 0x04, 0x00, 0x00, 0x00,
  0x50, 0xfe, 0xff, 0xff, 0x29, 0x00, 0x00, 0x00, 0x73, 0x65, 0x71, 0x75,
  0x65, 0x6e, 0x74, 0x69, 0x61, 0x6c, 0x2f, 0x63, 0x6f, 0x6e, 0x76, 0x32,
  0x64, 0x5f, 0x31, 0x2f, 0x43, 0x6f, 0x6e, 0x76, 0x32, 0x44, 0x2f, 0x52,
  0x65, 0x61, 0x64, 0x56, 0x61, 0x72, 0x69, 0x61, 0x62, 0x6c, 0x65, 0x4f,
  0x70, 0x00, 0x00, 0x00, 0x04, 0x00, 0x00, 0x00, 0x10, 0x00, 0x00, 0x00,
  0x04, 0x00, 0x00, 0x00, 0x01, 0x00, 0x00, 0x00, 0x08, 0x00, 0x00, 0x00,
  0xba, 0xfe, 0xff, 0xff, 0x30, 0x00, 0x00, 0x00, 0x0f, 0x00, 0x00, 0x00,
  0x0c, 0x00, 0x00, 0x00, 0x04, 0x00, 0x00, 0x00, 0xac, 0xfe, 0xff, 0xff,
  0x16, 0x00, 0x00, 0x00, 0x73, 0x65, 0x71, 0x75, 0x65, 0x6e, 0x74, 0x69,
  0x61, 0x6c, 0x2f, 0x63, 0x6f, 0x6e, 0x76, 0x32, 0x64, 0x2f, 0x52, 0x65,
  0x6c, 0x75, 0x00, 0x00, 0x04, 0x00, 0x00, 0x00, 0x01, 0x00, 0x00, 0x00,
  0x40, 0x00, 0x00, 0x00, 0x03, 0x00, 0x00, 0x00, 0x08, 0x00, 0x00, 0x00,
  0x02, 0xff, 0xff, 0xff, 0x38, 0x00, 0x00, 0x00, 0x05, 0x00, 0x00, 0x00,
  0x0c, 0x00, 0x00, 0x00, 0x04, 0x00, 0x00, 0x00, 0xf4, 0xfe, 0xff, 0xff,
  0x1d, 0x00, 0x00, 0x00, 0x73, 0x65, 0x71, 0x75, 0x65, 0x6e, 0x74, 0x69,
  0x61, 0x6c, 0x2f, 0x63, 0x6f, 0x6e, 0x76, 0x32, 0x64, 0x2f, 0x43, 0x6f,
  0x6e, 0x76, 0x32, 0x44, 0x5f, 0x62, 0x69, 0x61, 0x73, 0x00, 0x00, 0x00,
  0x01, 0x00, 0x00, 0x00, 0x08, 0x00, 0x00, 0x00, 0x46, 0xff, 0xff, 0xff,
  0x40, 0x00, 0x00, 0x00, 0x0e, 0x00, 0x00, 0x00, 0x0c, 0x00, 0x00, 0x00,
  0x04, 0x00, 0x00, 0x00, 0x38, 0xff, 0xff, 0xff, 0x27, 0x00, 0x00, 0x00,
  0x73, 0x65, 0x71, 0x75, 0x65, 0x6e, 0x74, 0x69, 0x61, 0x6c, 0x2f, 0x63,
  0x6f, 0x6e, 0x76, 0x32, 0x64, 0x2f, 0x43, 0x6f, 0x6e, 0x76, 0x32, 0x44,
  0x2f, 0x52, 0x65, 0x61, 0x64, 0x56, 0x61, 0x72, 0x69, 0x61, 0x62, 0x6c,
  0x65, 0x4f, 0x70, 0x00, 0x04, 0x00, 0x00, 0x00, 0x01, 0x00, 0x00, 0x00,
  0x04, 0x00, 0x00, 0x00, 0x03, 0x00, 0x00, 0x00, 0x08, 0x00, 0x00, 0x00,
  0x9e, 0xff, 0xff, 0xff, 0x48, 0x00, 0x00, 0x00, 0x0c, 0x00, 0x00, 0x00,
  0x2c, 0x00, 0x00, 0x00, 0x0c, 0x00, 0x00, 0x00, 0x08, 0x00, 0x0c, 0x00,
  0x04, 0x00, 0x08, 0x00, 0x08, 0x00, 0x00, 0x00, 0x10, 0x00, 0x00, 0x00,
  0x04, 0x00, 0x00, 0x00, 0x01, 0x00, 0x00, 0x00, 0x00, 0x00, 0x7f, 0x43,
  0x01, 0x00, 0x00, 0x00, 0x00, 0x00, 0x00, 0x00, 0x0c, 0x00, 0x00, 0x00,
  0x63, 0x6f, 0x6e, 0x76, 0x32, 0x64, 0x5f, 0x69, 0x6e, 0x70, 0x75, 0x74,
  0x00, 0x00, 0x00, 0x00, 0x04, 0x00, 0x00, 0x00, 0x01, 0x00, 0x00, 0x00,
  0x40, 0x00, 0x00, 0x00, 0x03, 0x00, 0x00, 0x00, 0x01, 0x00, 0x00, 0x00,
  0x00, 0x00, 0x0e, 0x00, 0x14, 0x00, 0x04, 0x00, 0x00, 0x00, 0x08, 0x00,
  0x0c, 0x00, 0x10, 0x00, 0x0e, 0x00, 0x00, 0x00, 0x28, 0x00, 0x00, 0x00,
  0x07, 0x00, 0x00, 0x00, 0x10, 0x00, 0x00, 0x00, 0x08, 0x00, 0x00, 0x00,
  0x04, 0x00, 0x04, 0x00, 0x04, 0x00, 0x00, 0x00, 0x08, 0x00, 0x00, 0x00,
  0x49, 0x64, 0x65, 0x6e, 0x74, 0x69, 0x74, 0x79, 0x00, 0x00, 0x00, 0x00,
  0x02, 0x00, 0x00, 0x00, 0x01, 0x00, 0x00, 0x00, 0x03, 0x00, 0x00, 0x00,
  0x05, 0x00, 0x00, 0x00, 0x58, 0x00, 0x00, 0x00, 0x44, 0x00, 0x00, 0x00,
  0x2c, 0x00, 0x00, 0x00, 0x18, 0x00, 0x00, 0x00, 0x0c, 0x00, 0x00, 0x00,
  0x00, 0x00, 0x06, 0x00, 0x08, 0x00, 0x07, 0x00, 0x06, 0x00, 0x00, 0x00,
  0x00, 0x00, 0x00, 0x19, 0xe2, 0xff, 0xff, 0xff, 0x00, 0x11, 0x0a, 0x00,
  0x0e, 0x00, 0x07, 0x00, 0x00, 0x00, 0x08, 0x00, 0x0a, 0x00, 0x00, 0x00,
  0x00, 0x00, 0x00, 0x09, 0x03, 0x00, 0x00, 0x00, 0x00, 0x00, 0x06, 0x00,
  0x06, 0x00, 0x05, 0x00, 0x06, 0x00, 0x00, 0x00, 0x00, 0x04, 0x0a, 0x00,
  0x0c, 0x00, 0x07, 0x00, 0x00, 0x00, 0x08, 0x00, 0x0a, 0x00, 0x00, 0x00,
  0x00, 0x00, 0x00, 0x03, 0x02, 0x00, 0x00, 0x00
  // Paste the data of the char array in `src/model.cc` here
};

unsigned int model_tflite_len = 7040;// Fill the int in `src/model.cc` here