#include "magic_wand_model_data.h"

// We need to keep the data array aligned on some architectures.
#ifdef __has_attribute
#define HAVE_ATTRIBUTE(x) __has_attribute(x)
#else
#define HAVE_ATTRIBUTE(x) 0
#endif
#if HAVE_ATTRIBUTE(aligned) || (defined(__GNUC__) && !defined(__clang__))
#define DATA_ALIGN_ATTRIBUTE __attribute__((aligned(4)))
#else
#define DATA_ALIGN_ATTRIBUTE
#endif

const unsigned char g_magic_wand_model_data[] DATA_ALIGN_ATTRIBUTE = {
  0x08, 0x00, 0x00, 0x00, 0x54, 0x46, 0x4c, 0x33, 0x62, 0xff, 0xff, 0xff,
  0x03, 0x00, 0x00, 0x00, 0x10, 0x00, 0x00, 0x00, 0x24, 0x00, 0x00, 0x00,
  0x78, 0x00, 0x00, 0x00, 0x24, 0x00, 0x00, 0x00, 0x05, 0x00, 0x00, 0x00,
  0x78, 0x05, 0x00, 0x00, 0xb0, 0x04, 0x00, 0x00, 0xe0, 0x02, 0x00, 0x00,
  0x60, 0x02, 0x00, 0x00, 0x54, 0x01, 0x00, 0x00, 0x01, 0x00, 0x00, 0x00,
  0x78, 0x00, 0x00, 0x00, 0x13, 0x00, 0x00, 0x00, 0x18, 0x30, 0x00, 0x00,
  0x14, 0x30, 0x00, 0x00, 0x20, 0x2f, 0x00, 0x00, 0xa8, 0x2e, 0x00, 0x00,
  0x3c, 0x2e, 0x00, 0x00, 0xec, 0x11, 0x00, 0x00, 0x98, 0x10, 0x00, 0x00,
  0xbc, 0x0e, 0x00, 0x00, 0x60, 0x06, 0x00, 0x00, 0xfc, 0x05, 0x00, 0x00,
  0x78, 0x05, 0x00, 0x00, 0xec, 0x2f, 0x00, 0x00, 0xe8, 0x2f, 0x00, 0x00,
  0xe4, 0x2f, 0x00, 0x00, 0xe0, 0x2f, 0x00, 0x00, 0xdc, 0x2f, 0x00, 0x00,
  0xd8, 0x2f, 0x00, 0x00, 0xd4, 0x2f, 0x00, 0x00, 0xd0, 0x2f, 0x00, 0x00,
  0x0f, 0x00, 0x00, 0x00, 0x4d, 0x4c, 0x49, 0x52, 0x20, 0x43, 0x6f, 0x6e,
  0x76, 0x65, 0x72, 0x74, 0x65, 0x64, 0x2e, 0x00, 0x00, 0x00, 0x0e, 0x00,
  0x18, 0x00, 0x04, 0x00, 0x08, 0x00, 0x0c, 0x00, 0x10, 0x00, 0x14, 0x00,
  0x0e, 0x00, 0x00, 0x00, 0x14, 0x00, 0x00, 0x00, 0x5c, 0x00, 0x00, 0x00,
  0x60, 0x00, 0x00, 0x00, 0x64, 0x00, 0x00, 0x00, 0x84, 0x00, 0x00, 0x00,
  0x12, 0x00, 0x00, 0x00, 0x48, 0x2f, 0x00, 0x00, 0xe4, 0x2e, 0x00, 0x00,
  0x3c, 0x2e, 0x00, 0x00, 0xd8, 0x2d, 0x00, 0x00, 0x70, 0x2d, 0x00, 0x00,
  0x1c, 0x11, 0x00, 0x00, 0xc0, 0x0f, 0x00, 0x00, 0xe4, 0x0d, 0x00, 0x00,
  0xa0, 0x05, 0x00, 0x00, 0x3c, 0x05, 0x00, 0x00, 0xb0, 0x04, 0x00, 0x00,
  0xe8, 0x03, 0x00, 0x00, 0x38, 0x03, 0x00, 0x00, 0xa4, 0x02, 0x00, 0x00,
  0x10, 0x02, 0x00, 0x00, 0x90, 0x01, 0x00, 0x00, 0xfc, 0x00, 0x00, 0x00,
  0x80, 0x00, 0x00, 0x00, 0x01, 0x00, 0x00, 0x00, 0x00, 0x00, 0x00, 0x00,
  0x01, 0x00, 0x00, 0x00, 0x11, 0x00, 0x00, 0x00, 0x08, 0x00, 0x00, 0x00,
  0x1c, 0x04, 0x00, 0x00, 0x58, 0x03, 0x00, 0x00, 0xc8, 0x02, 0x00, 0x00,
  0x24, 0x02, 0x00, 0x00, 0xac, 0x01, 0x00, 0x00, 0x10, 0x01, 0x00, 0x00,
  0x94, 0x00, 0x00, 0x00, 0x10, 0x00, 0x00, 0x00, 0x04, 0x00, 0x00, 0x00,
  0x6d, 0x61, 0x69, 0x6e, 0x00, 0x00, 0x00, 0x00, 0x8e, 0xff, 0xff, 0xff,
  0x00, 0x00, 0x00, 0x09, 0x04, 0x00, 0x00, 0x00, 0x1c, 0x00, 0x00, 0x00,
  0x10, 0x00, 0x00, 0x00, 0x04, 0x00, 0x00, 0x00, 0x0a, 0xd2, 0xff, 0xff,
  0x00, 0x00, 0x80, 0x3f, 0x01, 0x00, 0x00, 0x00, 0x11, 0x00, 0x00, 0x00,
  0x01, 0x00, 0x00, 0x00, 0x10, 0x00, 0x00, 0x00, 0xf6, 0xfb, 0xff, 0xff,
  0x00, 0x00, 0x00, 0x19, 0x01, 0x00, 0x00, 0x00, 0x8a, 0xd1, 0xff, 0xff,
  0x10, 0x00, 0x00, 0x00, 0x12, 0x00, 0x00, 0x00, 0x14, 0x00, 0x00, 0x00,
  0x20, 0x00, 0x00, 0x00, 0x02, 0x00, 0x00, 0x00, 0x01, 0x00, 0x00, 0x00,
  0x04, 0x00, 0x00, 0x00, 0x08, 0x00, 0x00, 0x00, 0x49, 0x64, 0x65, 0x6e,
  0x74, 0x69, 0x74, 0x79, 0x00, 0x00, 0x00, 0x00, 0xc4, 0xd1, 0xff, 0xff,
  0x00, 0x00, 0x0e, 0x00, 0x18, 0x00, 0x08, 0x00, 0x0c, 0x00, 0x10, 0x00,
  0x07, 0x00, 0x14, 0x00, 0x0e, 0x00, 0x00, 0x00, 0x00, 0x00, 0x00, 0x08,
  0x03, 0x00, 0x00, 0x00, 0x18, 0x00, 0x00, 0x00, 0x0c, 0x00, 0x00, 0x00,
  0x04, 0x00, 0x00, 0x00, 0x98, 0xd1, 0xff, 0xff, 0x01, 0x00, 0x00, 0x00,
  0x10, 0x00, 0x00, 0x00, 0x03, 0x00, 0x00, 0x00, 0x0f, 0x00, 0x00, 0x00,
  0x05, 0x00, 0x00, 0x00, 0x02, 0x00, 0x00, 0x00, 0x02, 0xd2, 0xff, 0xff,
  0x10, 0x00, 0x00, 0x00, 0x11, 0x00, 0x00, 0x00, 0x14, 0x00, 0x00, 0x00,
  0x30, 0x00, 0x00, 0x00, 0x02, 0x00, 0x00, 0x00, 0x01, 0x00, 0x00, 0x00,
  0x04, 0x00, 0x00, 0x00, 0x1a, 0x00, 0x00, 0x00, 0x73, 0x65, 0x71, 0x75,
  0x65, 0x6e, 0x74, 0x69, 0x61, 0x6c, 0x2f, 0x64, 0x65, 0x6e, 0x73, 0x65,
  0x5f, 0x31, 0x2f, 0x42, 0x69, 0x61, 0x73, 0x41, 0x64, 0x64, 0x00, 0x00,
  0xf4, 0xd1, 0xff, 0xff, 0xd6, 0xfd, 0xff, 0xff, 0x00, 0x00, 0x00, 0x08,
  0x03, 0x00, 0x00, 0x00, 0x24, 0x00, 0x00, 0x00, 0x18, 0x00, 0x00, 0x00,
  0x0c, 0x00, 0x00, 0x00, 0x00, 0x00, 0x06, 0x00, 0x08, 0x00, 0x07, 0x00,
  0x06, 0x00, 0x00, 0x00, 0x00, 0x00, 0x00, 0x01, 0x01, 0x00, 0x00, 0x00,
  0x0f, 0x00, 0x00, 0x00, 0x03, 0x00, 0x00, 0x00, 0x0e, 0x00, 0x00, 0x00,
  0x04, 0x00, 0x00, 0x00, 0x01, 0x00, 0x00, 0x00, 0xfe, 0xfc, 0xff, 0xff,
  0x00, 0x00, 0x00, 0x09, 0x01, 0x00, 0x00, 0x00, 0x92, 0xd2, 0xff, 0xff,
  0x10, 0x00, 0x00, 0x00, 0x10, 0x00, 0x00, 0x00, 0x14, 0x00, 0x00, 0x00,
  0x2c, 0x00, 0x00, 0x00, 0x02, 0x00, 0x00, 0x00, 0x01, 0x00, 0x00, 0x00,
  0x10, 0x00, 0x00, 0x00, 0x15, 0x00, 0x00, 0x00, 0x73, 0x65, 0x71, 0x75,
  0x65, 0x6e, 0x74, 0x69, 0x61, 0x6c, 0x2f, 0x64, 0x65, 0x6e, 0x73, 0x65,
  0x2f, 0x52, 0x65, 0x6c, 0x75, 0x00, 0x00, 0x00, 0xd8, 0xd2, 0xff, 0xff,
  0x00, 0x00, 0x0a, 0x00, 0x10, 0x00, 0x04, 0x00, 0x08, 0x00, 0x0c, 0x00,
  0x0a, 0x00, 0x00, 0x00, 0x02, 0x00, 0x00, 0x00, 0x10, 0x00, 0x00, 0x00,
  0x04, 0x00, 0x00, 0x00, 0x01, 0x00, 0x00, 0x00, 0x0e, 0x00, 0x00, 0x00,
  0x02, 0x00, 0x00, 0x00, 0x0d, 0x00, 0x00, 0x00, 0x03, 0x00, 0x00, 0x00,
  0x7a, 0xfd, 0xff, 0xff, 0x00, 0x00, 0x00, 0x16, 0x01, 0x00, 0x00, 0x00,
  0x0e, 0xd3, 0xff, 0xff, 0x10, 0x00, 0x00, 0x00, 0x0f, 0x00, 0x00, 0x00,
  0x14, 0x00, 0x00, 0x00, 0x30, 0x00, 0x00, 0x00, 0x02, 0x00, 0x00, 0x00,
  0x01, 0x00, 0x00, 0x00, 0x70, 0x00, 0x00, 0x00, 0x1a, 0x00, 0x00, 0x00,
  0x73, 0x65, 0x71, 0x75, 0x65, 0x6e, 0x74, 0x69, 0x61, 0x6c, 0x2f, 0x66,
  0x6c, 0x61, 0x74, 0x74, 0x65, 0x6e, 0x2f, 0x52, 0x65, 0x73, 0x68, 0x61,
  0x70, 0x65, 0x00, 0x00, 0x00, 0xd3, 0xff, 0xff, 0xe2, 0xfe, 0xff, 0xff,
  0x00, 0x00, 0x00, 0x05, 0x01, 0x00, 0x00, 0x00, 0x38, 0x00, 0x00, 0x00,
  0x2c, 0x00, 0x00, 0x00, 0x14, 0x00, 0x00, 0x00, 0x00, 0x00, 0x0e, 0x00,
  0x14, 0x00, 0x00, 0x00, 0x10, 0x00, 0x0c, 0x00, 0x08, 0x00, 0x04, 0x00,
  0x0e, 0x00, 0x00, 0x00, 0x03, 0x00, 0x00, 0x00, 0x01, 0x00, 0x00, 0x00,
  0x03, 0x00, 0x00, 0x00, 0x01, 0x00, 0x00, 0x00, 0x01, 0x00, 0x00, 0x00,
  0x0d, 0x00, 0x00, 0x00, 0x01, 0x00, 0x00, 0x00, 0x0c, 0x00, 0x00, 0x00,
  0x9e, 0xd3, 0xff, 0xff, 0x10, 0x00, 0x00, 0x00, 0x0e, 0x00, 0x00, 0x00,
  0x1c, 0x00, 0x00, 0x00, 0x40, 0x00, 0x00, 0x00, 0x04, 0x00, 0x00, 0x00,
  0x01, 0x00, 0x00, 0x00, 0x07, 0x00, 0x00, 0x00, 0x01, 0x00, 0x00, 0x00,
  0x10, 0x00, 0x00, 0x00, 0x22, 0x00, 0x00, 0x00, 0x73, 0x65, 0x71, 0x75,
  0x65, 0x6e, 0x74, 0x69, 0x61, 0x6c, 0x2f, 0x6d, 0x61, 0x78, 0x5f, 0x70,
  0x6f, 0x6f, 0x6c, 0x69, 0x6e, 0x67, 0x32, 0x64, 0x5f, 0x31, 0x2f, 0x4d,
  0x61, 0x78, 0x50, 0x6f, 0x6f, 0x6c, 0x00, 0x00, 0xa0, 0xd3, 0xff, 0xff,
  0xc2, 0xfe, 0xff, 0xff, 0x00, 0x00, 0x00, 0x01, 0x24, 0x00, 0x00, 0x00,
  0x18, 0x00, 0x00, 0x00, 0x04, 0x00, 0x00, 0x00, 0xb4, 0xfe, 0xff, 0xff,
  0x01, 0x00, 0x00, 0x00, 0x01, 0x00, 0x00, 0x00, 0x00, 0x00, 0x00, 0x01,
  0x01, 0x00, 0x00, 0x00, 0x0c, 0x00, 0x00, 0x00, 0x03, 0x00, 0x00, 0x00,
  0x0b, 0x00, 0x00, 0x00, 0x07, 0x00, 0x00, 0x00, 0x09, 0x00, 0x00, 0x00,
  0x2e, 0xd4, 0xff, 0xff, 0x10, 0x00, 0x00, 0x00, 0x0d, 0x00, 0x00, 0x00,
  0x1c, 0x00, 0x00, 0x00, 0x2c, 0x00, 0x00, 0x00, 0x04, 0x00, 0x00, 0x00,
  0x01, 0x00, 0x00, 0x00, 0x15, 0x00, 0x00, 0x00, 0x01, 0x00, 0x00, 0x00,
  0x10, 0x00, 0x00, 0x00, 0x0c, 0x00, 0x00, 0x00, 0x74, 0x66, 0x6c, 0x2e,
  0x63, 0x6f, 0x6e, 0x76, 0x5f, 0x32, 0x64, 0x31, 0x00, 0x00, 0x00, 0x00,
  0x74, 0xd4, 0xff, 0xff, 0x00, 0x00, 0x0e, 0x00, 0x1a, 0x00, 0x08, 0x00,
  0x0c, 0x00, 0x10, 0x00, 0x07, 0x00, 0x14, 0x00, 0x0e, 0x00, 0x00, 0x00,
  0x00, 0x00, 0x00, 0x05, 0x01, 0x00, 0x00, 0x00, 0x3c, 0x00, 0x00, 0x00,
  0x30, 0x00, 0x00, 0x00, 0x14, 0x00, 0x00, 0x00, 0x00, 0x00, 0x0e, 0x00,
  0x18, 0x00, 0x17, 0x00, 0x10, 0x00, 0x0c, 0x00, 0x08, 0x00, 0x04, 0x00,
  0x0e, 0x00, 0x00, 0x00, 0x03, 0x00, 0x00, 0x00, 0x03, 0x00, 0x00, 0x00,
  0x03, 0x00, 0x00, 0x00, 0x03, 0x00, 0x00, 0x00, 0x00, 0x00, 0x00, 0x01,
  0x01, 0x00, 0x00, 0x00, 0x0b, 0x00, 0x00, 0x00, 0x01, 0x00, 0x00, 0x00,
  0x0a, 0x00, 0x00, 0x00, 0x46, 0xff, 0xff, 0xff, 0x00, 0x00, 0x00, 0x11,
  0x01, 0x00, 0x00, 0x00, 0xda, 0xd4, 0xff, 0xff, 0x10, 0x00, 0x00, 0x00,
  0x0c, 0x00, 0x00, 0x00, 0x1c, 0x00, 0x00, 0x00, 0x40, 0x00, 0x00, 0x00,
  0x04, 0x00, 0x00, 0x00, 0x01, 0x00, 0x00, 0x00, 0x15, 0x00, 0x00, 0x00,
  0x01, 0x00, 0x00, 0x00, 0x08, 0x00, 0x00, 0x00, 0x20, 0x00, 0x00, 0x00,
  0x73, 0x65, 0x71, 0x75, 0x65, 0x6e, 0x74, 0x69, 0x61, 0x6c, 0x2f, 0x6d,
  0x61, 0x78, 0x5f, 0x70, 0x6f, 0x6f, 0x6c, 0x69, 0x6e, 0x67, 0x32, 0x64,
  0x2f, 0x4d, 0x61, 0x78, 0x50, 0x6f, 0x6f, 0x6c, 0x00, 0x00, 0x00, 0x00,
  0x34, 0xd5, 0xff, 0xff, 0x00, 0x00, 0x0e, 0x00, 0x14, 0x00, 0x00, 0x00,
  0x08, 0x00, 0x0c, 0x00, 0x07, 0x00, 0x10, 0x00, 0x0e, 0x00, 0x00, 0x00,
  0x00, 0x00, 0x00, 0x01, 0x30, 0x00, 0x00, 0x00, 0x24, 0x00, 0x00, 0x00,
  0x10, 0x00, 0x00, 0x00, 0x0c, 0x00, 0x10, 0x00, 0x00, 0x00, 0x04, 0x00,
  0x08, 0x00, 0x0f, 0x00, 0x0c, 0x00, 0x00, 0x00, 0x01, 0x00, 0x00, 0x00,
  0x01, 0x00, 0x00, 0x00, 0x00, 0x00, 0x00, 0x01, 0x01, 0x00, 0x00, 0x00,
  0x0a, 0x00, 0x00, 0x00, 0x03, 0x00, 0x00, 0x00, 0x00, 0x00, 0x00, 0x00,
  0x06, 0x00, 0x00, 0x00, 0x08, 0x00, 0x00, 0x00, 0x00, 0x00, 0x0a, 0x00,
  0x0c, 0x00, 0x07, 0x00, 0x00, 0x00, 0x08, 0x00, 0x0a, 0x00, 0x00, 0x00,
  0x00, 0x00, 0x00, 0x03, 0x01, 0x00, 0x00, 0x00, 0x9e, 0xd5, 0xff, 0xff,
  0x10, 0x00, 0x00, 0x00, 0x0b, 0x00, 0x00, 0x00, 0x1c, 0x00, 0x00, 0x00,
  0x28, 0x00, 0x00, 0x00, 0x04, 0x00, 0x00, 0x00, 0x01, 0x00, 0x00, 0x00,
  0x40, 0x00, 0x00, 0x00, 0x03, 0x00, 0x00, 0x00, 0x08, 0x00, 0x00, 0x00,
  0x0b, 0x00, 0x00, 0x00, 0x74, 0x66, 0x6c, 0x2e, 0x63, 0x6f, 0x6e, 0x76,
  0x5f, 0x32, 0x64, 0x00, 0x88, 0xd5, 0xff, 0xff, 0x7e, 0xd6, 0xff, 0xff,
  0x04, 0x00, 0x00, 0x00, 0x40, 0x00, 0x00, 0x00, 0xd8, 0x0a, 0x1a, 0xc0,
  0xd8, 0x96, 0x35, 0xc0, 0xf2, 0xcb, 0x98, 0x3f, 0x20, 0xd1, 0xc9, 0xbf,
  0xd5, 0x07, 0x21, 0x3f, 0x6f, 0x93, 0x05, 0x40, 0x24, 0xfd, 0x94, 0xbf,
  0xf0, 0x5f, 0xc0, 0xbf, 0x37, 0xd6, 0x9a, 0x3f, 0x13, 0x62, 0x2b, 0xc0,
  0x55, 0x59, 0xfa, 0xbf, 0xe8, 0x82, 0x38, 0xc0, 0xbf, 0x4c, 0xe1, 0x3f,
  0xd4, 0xe7, 0xb4, 0x3f, 0xe9, 0xf9, 0x0b, 0xbf, 0x72, 0x7f, 0x65, 0xbf,
  0x26, 0xd6, 0xff, 0xff, 0x10, 0x00, 0x00, 0x00, 0x0a, 0x00, 0x00, 0x00,
  0x10, 0x00, 0x00, 0x00, 0x20, 0x00, 0x00, 0x00, 0x01, 0x00, 0x00, 0x00,
  0x10, 0x00, 0x00, 0x00, 0x0d, 0x00, 0x00, 0x00, 0x73, 0x74, 0x64, 0x2e,
  0x63, 0x6f, 0x6e, 0x73, 0x74, 0x61, 0x6e, 0x74, 0x31, 0x00, 0x00, 0x00,
  0x08, 0xd6, 0xff, 0xff, 0xfe, 0xd6, 0xff, 0xff, 0x04, 0x00, 0x00, 0x00,
  0x20, 0x00, 0x00, 0x00, 0x5c, 0x90, 0xb3, 0xbf, 0x72, 0x4b, 0x28, 0xc0,
  0xd3, 0xf2, 0x46, 0xbe, 0x8d, 0x36, 0x4e, 0xc0, 0x43, 0x5a, 0xda, 0xbe,
  0x4d, 0xa8, 0x0f, 0xc0, 0x0c, 0x62, 0x31, 0x3f, 0xad, 0x09, 0xec, 0xbf,
  0x86, 0xd6, 0xff, 0xff, 0x10, 0x00, 0x00, 0x00, 0x09, 0x00, 0x00, 0x00,
  0x10, 0x00, 0x00, 0x00, 0x20, 0x00, 0x00, 0x00, 0x01, 0x00, 0x00, 0x00,
  0x08, 0x00, 0x00, 0x00, 0x0c, 0x00, 0x00, 0x00, 0x73, 0x74, 0x64, 0x2e,
  0x63, 0x6f, 0x6e, 0x73, 0x74, 0x61, 0x6e, 0x74, 0x00, 0x00, 0x00, 0x00,
  0x68, 0xd6, 0xff, 0xff, 0x5e, 0xd7, 0xff, 0xff, 0x04, 0x00, 0x00, 0x00,
  0x00, 0x08, 0x00, 0x00, 0x8b, 0xc1, 0x34, 0x3e, 0x50, 0xae, 0x04, 0x3e,
  0x5d, 0x8b, 0xf9, 0xbe, 0xc3, 0x56, 0x81, 0xbf, 0xe5, 0xf6, 0x8a, 0xbe,
  0x70, 0x38, 0x30, 0xbd, 0x8f, 0x55, 0xdd, 0xbd, 0x98, 0x37, 0xfa, 0xbd,
  0xa9, 0xc0, 0x4f, 0x3e, 0x1f, 0xca, 0x28, 0x3f, 0x99, 0x19, 0xe1, 0xbe,
  0x73, 0x39, 0xc2, 0x3c, 0xf8, 0x6f, 0x30, 0xbf, 0x2e, 0x10, 0x39, 0xbe,
  0xec, 0x75, 0xbd, 0x3c, 0xe0, 0xda, 0x0a, 0x3e, 0xa2, 0x1e, 0x4f, 0xbe,
  0x78, 0x36, 0x6c, 0xbf, 0x72, 0xbc, 0xc1, 0xbc, 0xb9, 0x3e, 0xbd, 0x3c,
  0xe3, 0x85, 0x89, 0xbd, 0xbe, 0xbe, 0xae, 0xbd, 0xf0, 0x0c, 0x0d, 0x3e,
  0x1e, 0x33, 0x9e, 0xbc, 0x2b, 0x64, 0x86, 0xbe, 0xcb, 0x35, 0x29, 0x3e,
  0x4b, 0xe5, 0x00, 0x3e, 0xe7, 0x47, 0x5b, 0x3e, 0x7c, 0xf8, 0xb5, 0x3e,
  0xa5, 0x95, 0xee, 0xbc, 0x42, 0x8e, 0x16, 0xbe, 0x72, 0x8e, 0x21, 0xbe,
  0x3c, 0xc2, 0x94, 0xbe, 0xeb, 0x70, 0xfe, 0x3e, 0xc1, 0x74, 0x41, 0xbe,
  0x35, 0xe3, 0xcf, 0xbd, 0x43, 0xb2, 0x66, 0xbe, 0xb6, 0x58, 0x03, 0xbe,
  0x28, 0x3a, 0x1a, 0xbe, 0xe9, 0x74, 0xfb, 0xbd, 0xa1, 0xf5, 0x09, 0x3f,
  0xf7, 0xd2, 0x16, 0xbf, 0xbf, 0xec, 0x6d, 0xbe, 0x0b, 0x6f, 0x86, 0x3c,
  0xef, 0xc4, 0x06, 0xbe, 0x2a, 0x9f, 0x84, 0xbd, 0x9a, 0x4e, 0x1a, 0xbd,
  0x4c, 0xb4, 0x1e, 0xbd, 0x2a, 0x5b, 0x01, 0xbe, 0xb9, 0x63, 0x15, 0x3e,
  0xf7, 0x41, 0x1a, 0xbd, 0x7d, 0x20, 0x03, 0x3d, 0x48, 0x6c, 0x16, 0x3e,
  0x9f, 0xbb, 0x77, 0xbd, 0x49, 0xab, 0x0f, 0xbc, 0xd0, 0xa6, 0x90, 0x3c,
  0x52, 0x0d, 0xdb, 0xbd, 0x17, 0xf1, 0x47, 0x3e, 0x3b, 0x1a, 0x53, 0xbd,
  0xe1, 0x98, 0x20, 0x3e, 0x13, 0xa1, 0x44, 0x3c, 0x7b, 0xb1, 0x9b, 0xbd,
  0x9c, 0x5c, 0x5a, 0xbd, 0x9f, 0x0f, 0xd4, 0xbd, 0xfc, 0x42, 0x39, 0xbe,
  0x67, 0x83, 0xe5, 0x3d, 0xdc, 0x69, 0xd6, 0x3e, 0x4b, 0x63, 0xa4, 0xbd,
  0x00, 0x3e, 0x08, 0x3a, 0xae, 0x22, 0xda, 0x3d, 0xfe, 0x77, 0x3e, 0xbe,
  0x2a, 0x4c, 0x76, 0x3c, 0xaf, 0x21, 0x2e, 0xbe, 0x29, 0x29, 0xbb, 0x3d,
  0x6e, 0x98, 0x07, 0xbe, 0x48, 0xfa, 0xaf, 0xbd, 0x25, 0x4e, 0x50, 0xbd,
  0xcc, 0xae, 0x38, 0xbe, 0xcf, 0xa3, 0xa8, 0xbd, 0x10, 0x04, 0x30, 0xbe,
  0x16, 0x01, 0xaf, 0xbd, 0x14, 0xfd, 0x75, 0x3e, 0x26, 0x1a, 0xc5, 0xbd,
  0xa5, 0xd3, 0xf1, 0xbd, 0xfe, 0x29, 0x5a, 0xbe, 0x14, 0x69, 0x22, 0xbe,
  0x10, 0x40, 0xb4, 0x3b, 0xdf, 0xe2, 0xbf, 0xbd, 0x50, 0x88, 0xa2, 0x3e,
  0xe5, 0xe0, 0x1f, 0x3e, 0x05, 0x3b, 0x0f, 0xbe, 0xd8, 0x10, 0x35, 0x3e,
  0xb1, 0x4d, 0xbf, 0xbe, 0x0e, 0xf5, 0x03, 0xbe, 0xd5, 0xe6, 0xcd, 0x3d,
  0xa2, 0x47, 0xdf, 0xbd, 0x37, 0xcc, 0x2d, 0xbd, 0x15, 0x93, 0x7c, 0x3e,
  0x10, 0xd9, 0xd9, 0x3c, 0xc2, 0xbd, 0xc7, 0x3d, 0x51, 0xd2, 0x3b, 0x3e,
  0x0d, 0x49, 0x0d, 0x3f, 0xd0, 0x64, 0x78, 0xbe, 0x1c, 0xd9, 0xc6, 0x3e,
  0x0f, 0xa7, 0x2f, 0xbe, 0x91, 0xb7, 0x08, 0x3e, 0xe5, 0x8c, 0x07, 0x3c,
  0xde, 0xb7, 0xf9, 0x3c, 0x91, 0x89, 0x94, 0xbd, 0xc5, 0x16, 0x06, 0xbc,
  0x03, 0xfc, 0x1f, 0xbf, 0x66, 0xd7, 0x0d, 0x3e, 0x63, 0x76, 0x46, 0xbd,
  0x95, 0xd0, 0x8a, 0x3e, 0x78, 0x10, 0x94, 0xbd, 0xfe, 0x63, 0x05, 0xbd,
  0xc4, 0xc5, 0x30, 0xbe, 0xec, 0xdd, 0xa8, 0xbe, 0x1d, 0xa0, 0x7c, 0xbe,
  0x3e, 0xed, 0x2a, 0xbe, 0xff, 0x7f, 0xfa, 0x3c, 0x41, 0x3e, 0x87, 0x3e,
  0xfb, 0x3b, 0xcf, 0xbd, 0x6e, 0xe6, 0xf2, 0x3d, 0x02, 0x90, 0x57, 0xbe,
  0xda, 0x81, 0xd7, 0xbe, 0x40, 0x3c, 0x19, 0xbd, 0xde, 0x46, 0x96, 0xbe,
  0x9e, 0x96, 0x7c, 0xbd, 0x5b, 0x94, 0x50, 0x3e, 0x13, 0x43, 0xb3, 0xbe,
  0x14, 0x68, 0x08, 0x3e, 0x3a, 0x55, 0xf5, 0xbb, 0x03, 0x07, 0x8a, 0x3d,
  0x94, 0xb2, 0xa0, 0xbd, 0xd0, 0x68, 0xb3, 0xbe, 0x5c, 0x65, 0x1c, 0x3c,
  0x41, 0x6b, 0xbf, 0x3e, 0x39, 0x25, 0xc0, 0xbe, 0x43, 0x9a, 0xa5, 0x3d,
  0x4f, 0x15, 0x36, 0xbe, 0xa7, 0x9f, 0x30, 0x3d, 0xae, 0xef, 0xc4, 0x3e,
  0xb7, 0xe2, 0x2a, 0xbe, 0x4a, 0x89, 0x7e, 0xbe, 0xf1, 0xb0, 0x8a, 0x3e,
  0xe5, 0xf1, 0x7c, 0xbe, 0x81, 0xe4, 0xb1, 0x3e, 0xe6, 0x6e, 0xf9, 0xbd,
  0xa1, 0x7d, 0xbc, 0xbd, 0x5f, 0xfd, 0x2a, 0xbe, 0xdb, 0x05, 0x51, 0xbe,
  0x09, 0x9e, 0xf2, 0xbb, 0xa1, 0x19, 0xc4, 0x3e, 0xe3, 0x5c, 0x29, 0xbe,
  0xe8, 0xe4, 0x20, 0x3e, 0xe4, 0x54, 0xc1, 0xbd, 0x26, 0xfa, 0xb9, 0xbd,
  0x41, 0x3a, 0xd9, 0x3c, 0x62, 0xdc, 0x71, 0xbe, 0x9c, 0xd8, 0xd1, 0xbd,
  0xdc, 0xbf, 0xc4, 0xbc, 0x7b, 0x6f, 0xde, 0xbd, 0xfb, 0xde, 0x08, 0x3e,
  0x3a, 0x4b, 0x1f, 0x3d, 0x5d, 0xba, 0x14, 0xbd, 0x3c, 0x1c, 0xff, 0x3d,
  0xed, 0x49, 0xb3, 0xbe, 0xed, 0xc9, 0xf6, 0xbd, 0x10, 0xef, 0x89, 0xbe,
  0x0c, 0x16, 0x52, 0xba, 0x20, 0xb1, 0x5a, 0xbe, 0x2c, 0x61, 0xd1, 0xbc,
  0xeb, 0xed, 0xc2, 0x3d, 0x8f, 0x25, 0x61, 0xbd, 0x91, 0x9d, 0x27, 0xbe,
  0xdf, 0x56, 0xa4, 0xbc, 0x21, 0xbd, 0x67, 0xbd, 0xfa, 0xbd, 0x63, 0xbd,
  0x08, 0x5d, 0x00, 0xbd, 0x94, 0xea, 0x9d, 0xbd, 0xe5, 0xef, 0x1e, 0x3e,
  0xf1, 0xc2, 0xb8, 0x3d, 0x2f, 0xb1, 0x97, 0xbd, 0x94, 0x59, 0x13, 0xbe,
  0x65, 0x5e, 0xa2, 0xbe, 0x40, 0x0f, 0x53, 0xbe, 0xea, 0xa7, 0xe3, 0xbb,
  0x1e, 0x72, 0x44, 0xbe, 0xa5, 0x33, 0x83, 0xbe, 0xea, 0xf8, 0x1c, 0xbd,
  0xc7, 0x30, 0x28, 0xbb, 0xa4, 0x32, 0x2e, 0x3e, 0xdf, 0x58, 0x1e, 0x3f,
  0x4a, 0xcf, 0x96, 0xbe, 0x90, 0x90, 0xf3, 0x3e, 0x9e, 0xac, 0x89, 0xbe,
  0xbc, 0x6a, 0x57, 0xbe, 0x43, 0xe9, 0x89, 0x3e, 0xb0, 0x72, 0xb3, 0xbd,
  0x38, 0x73, 0x9b, 0xbb, 0xb0, 0x96, 0xa6, 0x3e, 0xec, 0x2f, 0x08, 0xbe,
  0x22, 0x61, 0xf4, 0xbd, 0xa5, 0x19, 0x04, 0xbe, 0x54, 0xa6, 0x16, 0xbe,
  0x95, 0xa2, 0x92, 0x3d, 0x51, 0xd3, 0xcd, 0xbc, 0xfb, 0xd5, 0x04, 0x3d,
  0xd4, 0xbe, 0x01, 0x3e, 0x87, 0xef, 0xd5, 0xbd, 0xbc, 0xfa, 0x6e, 0xbc,
  0xea, 0x04, 0x4c, 0x3e, 0xc5, 0x28, 0xf1, 0xbd, 0xec, 0x07, 0xdf, 0xbd,
  0xa3, 0xb7, 0x26, 0xbe, 0xdd, 0x93, 0xb1, 0xbd, 0xea, 0x01, 0x80, 0x3e,
  0x69, 0xec, 0x0d, 0xbe, 0xe0, 0xbc, 0xa9, 0xbe, 0x7a, 0x19, 0x24, 0x3e,
  0x07, 0xb8, 0xf2, 0xbd, 0xe2, 0xb8, 0x35, 0xbe, 0xfa, 0x5d, 0xf8, 0xbd,
  0xe6, 0xe2, 0x0f, 0xbe, 0x0e, 0x66, 0x21, 0x3f, 0xb8, 0x02, 0x80, 0xbb,
  0xb1, 0x50, 0x98, 0xbd, 0x37, 0x10, 0x80, 0x3e, 0x3f, 0x08, 0xcb, 0x3e,
  0x0c, 0xbf, 0x0b, 0xbf, 0x1b, 0x01, 0x63, 0x3e, 0x63, 0xb8, 0x7c, 0xbe,
  0x7d, 0x25, 0x68, 0xbe, 0x67, 0x05, 0x8e, 0x3d, 0x31, 0x4d, 0x96, 0xbe,
  0xa6, 0xc6, 0xc6, 0xbd, 0x63, 0xf1, 0xa5, 0xbe, 0x65, 0x08, 0xba, 0xbe,
  0xbe, 0xfc, 0x92, 0xbd, 0x33, 0xf1, 0x55, 0xbe, 0x31, 0x48, 0x07, 0x3e,
  0x11, 0x83, 0x8d, 0xbd, 0x6c, 0x95, 0x83, 0xbd, 0xbb, 0x99, 0x47, 0xbe,
  0x2a, 0x27, 0xb8, 0xbe, 0xca, 0x0e, 0x21, 0xbe, 0x9f, 0x12, 0x64, 0xbe,
  0x40, 0xd6, 0x61, 0x3d, 0x9d, 0xdf, 0x9e, 0x3d, 0xcb, 0xaf, 0x06, 0xbe,
  0x6e, 0x82, 0x60, 0x3d, 0xf9, 0x73, 0x7d, 0xbe, 0x94, 0x83, 0xaf, 0xbe,
  0x3f, 0x9e, 0x54, 0x3e, 0x6d, 0x07, 0x96, 0xbe, 0x59, 0x82, 0xf5, 0x3d,
  0x68, 0x88, 0xd4, 0x3c, 0xe7, 0x2b, 0xe3, 0x3d, 0x87, 0xe0, 0xee, 0x3b,
  0xe1, 0x0e, 0x03, 0xbe, 0x68, 0x78, 0xd0, 0xbe, 0x17, 0x6c, 0x2b, 0x3e,
  0x0b, 0xcb, 0x8e, 0x3d, 0xe5, 0x85, 0xf9, 0xbd, 0x4c, 0x3b, 0xee, 0xbc,
  0xea, 0xeb, 0x9e, 0xbd, 0xa6, 0xbb, 0x65, 0x3e, 0x55, 0xcb, 0xc8, 0xbd,
  0x2c, 0xf4, 0xb8, 0xbe, 0xc0, 0xef, 0xd4, 0xbd, 0x92, 0xb4, 0x98, 0xbd,
  0xfe, 0x5b, 0x83, 0xbd, 0xa5, 0x89, 0x22, 0x3d, 0x5e, 0x7c, 0x39, 0x3e,
  0x7b, 0x24, 0x4d, 0xbe, 0x7c, 0xa0, 0x0c, 0x3e, 0xba, 0xc2, 0xcd, 0xbe,
  0x1b, 0x24, 0x41, 0xbe, 0x9f, 0xc1, 0xd7, 0x3c, 0xee, 0x9a, 0xb7, 0x3d,
  0x9f, 0xa0, 0x92, 0x3d, 0x1d, 0x9d, 0x30, 0x3e, 0xfa, 0x12, 0x48, 0xbe,
  0xc6, 0xc8, 0x61, 0x3e, 0x59, 0x7e, 0xab, 0xbe, 0x37, 0x93, 0xa3, 0xbd,
  0x8c, 0x09, 0x73, 0x3e, 0xa8, 0xd0, 0xfd, 0xbe, 0x0d, 0xfd, 0xa2, 0xbe,
  0x53, 0x6f, 0x85, 0xbd, 0xf0, 0xdb, 0x06, 0x3f, 0x44, 0x1a, 0xbf, 0xbd,
  0xcd, 0x44, 0x15, 0x3e, 0x0b, 0x96, 0x3f, 0xbd, 0x56, 0xc9, 0xc3, 0x3c,
  0x4f, 0xea, 0xa6, 0xbe, 0x7b, 0xd3, 0x13, 0x3e, 0x0e, 0x61, 0x41, 0xbd,
  0x2d, 0x58, 0xae, 0x3e, 0x32, 0x5c, 0xb8, 0x3d, 0x06, 0x5f, 0x0a, 0x3d,
  0x0e, 0x02, 0x6b, 0xbe, 0x9f, 0xf5, 0xb3, 0x3d, 0xbb, 0x00, 0x36, 0xbe,
  0x38, 0xf0, 0xa0, 0x3e, 0xb7, 0x59, 0x57, 0x3d, 0xcb, 0xa3, 0x09, 0xbf,
  0x44, 0xef, 0xa2, 0xbb, 0xb5, 0xf8, 0x1f, 0x3d, 0xa1, 0x4e, 0xc8, 0xbe,
  0x09, 0x63, 0xab, 0x3d, 0x3c, 0x86, 0x0a, 0x3e, 0xe0, 0x71, 0x6e, 0x3e,
  0x0c, 0xbf, 0x27, 0x3c, 0x0d, 0x6b, 0x1f, 0xbf, 0x32, 0x6e, 0x7e, 0xbd,
  0x13, 0x5f, 0x44, 0xbe, 0xd7, 0xa0, 0x31, 0xbd, 0xc9, 0xf2, 0x86, 0xbd,
  0x9c, 0xb1, 0x6f, 0xbd, 0xc4, 0xf1, 0x87, 0xbe, 0x68, 0xf4, 0xb5, 0xbe,
  0x63, 0x58, 0x1c, 0xbf, 0x52, 0x16, 0xa4, 0xbe, 0x78, 0x8d, 0xc0, 0xbd,
  0x70, 0xc1, 0x16, 0xbe, 0xa7, 0x69, 0x62, 0xbe, 0x98, 0xc6, 0xca, 0x3e,
  0x3e, 0xb4, 0xeb, 0x3e, 0x15, 0x53, 0x19, 0xbf, 0xa8, 0x6e, 0x39, 0x3e,
  0xca, 0x38, 0xe6, 0xbe, 0x5d, 0x06, 0xd0, 0xbd, 0xaa, 0xbd, 0x96, 0xbd,
  0xd8, 0x3b, 0x9c, 0xbd, 0x24, 0xd5, 0x78, 0xbe, 0x08, 0x73, 0x9c, 0x3e,
  0x5f, 0xe8, 0x3b, 0xbe, 0x70, 0xdd, 0x93, 0x3e, 0xbc, 0x6a, 0x44, 0xbe,
  0xc1, 0x0e, 0x43, 0xbe, 0x7e, 0x9e, 0xa7, 0xbd, 0x3a, 0xac, 0x71, 0x3c,
  0xf3, 0x2d, 0x30, 0xbe, 0x3a, 0x66, 0x1d, 0xbf, 0x24, 0x5c, 0xb3, 0xbc,
  0x31, 0x22, 0xd3, 0x3d, 0x17, 0xf7, 0x5a, 0x3e, 0x75, 0x2f, 0x81, 0xbd,
  0xde, 0x9f, 0x1f, 0x3e, 0xf7, 0x1b, 0x08, 0xbd, 0x94, 0x24, 0x61, 0xbe,
  0xb8, 0x07, 0x14, 0xbf, 0xe8, 0x5b, 0xfe, 0xbd, 0x30, 0x45, 0xee, 0xbe,
  0xe7, 0x71, 0x33, 0xbe, 0xa7, 0xc4, 0x11, 0xbe, 0xaf, 0x25, 0x12, 0xbe,
  0x81, 0x78, 0x45, 0xbe, 0x83, 0x3b, 0xbd, 0xbd, 0x5c, 0x6e, 0xd3, 0x3e,
  0x54, 0x45, 0x25, 0xbe, 0x24, 0xd2, 0xb2, 0xbd, 0x03, 0x11, 0x01, 0xbe,
  0x4c, 0xee, 0xf5, 0x3c, 0x3e, 0x4c, 0x1b, 0xbe, 0x30, 0x38, 0x2b, 0xbe,
  0xcf, 0x17, 0xd8, 0x3c, 0x79, 0x6d, 0xc9, 0x3e, 0xcb, 0x6e, 0x87, 0xbc,
  0x6d, 0xf9, 0x59, 0x3e, 0x2b, 0x26, 0x94, 0x3d, 0x2c, 0xd8, 0xa6, 0x3d,
  0xde, 0xd4, 0x98, 0xbd, 0xc4, 0x24, 0xa8, 0x3e, 0x45, 0x60, 0x34, 0xbd,
  0x7d, 0x96, 0x0a, 0x3d, 0x29, 0x4a, 0xc5, 0x3d, 0x9d, 0xff, 0xa7, 0xbd,
  0x12, 0x0e, 0x90, 0x3c, 0x03, 0x9e, 0xa1, 0xbd, 0xce, 0x36, 0x4b, 0xbe,
  0x08, 0xb6, 0x6d, 0xbd, 0x8b, 0xd5, 0x14, 0xbe, 0x68, 0xab, 0x2e, 0xbd,
  0xf8, 0x70, 0x2b, 0xbe, 0xa3, 0xe1, 0xd8, 0xbe, 0xd7, 0xe4, 0x2b, 0xbc,
  0x6b, 0xcc, 0xb9, 0xbc, 0xc8, 0x57, 0xab, 0x3d, 0xd6, 0x5d, 0x7a, 0xbe,
  0x9d, 0x0c, 0xdd, 0x3c, 0xef, 0x37, 0xb9, 0x3d, 0xc4, 0x85, 0x40, 0xbd,
  0x04, 0x6f, 0xba, 0xbe, 0xe1, 0x3b, 0x7b, 0xbd, 0x01, 0xb7, 0xbb, 0x3e,
  0x85, 0xeb, 0x41, 0xbe, 0x9f, 0x03, 0xdc, 0xbd, 0x5a, 0x9c, 0x91, 0xbe,
  0x1b, 0x5a, 0x49, 0xbe, 0xe4, 0xbf, 0xda, 0xbe, 0x59, 0x0f, 0x3d, 0xbe,
  0xb3, 0x00, 0x32, 0xbd, 0xfd, 0x29, 0xbb, 0xbe, 0x4e, 0x6d, 0xb0, 0xbd,
  0x0e, 0xcc, 0x8a, 0x3c, 0x01, 0xdb, 0x4e, 0xbb, 0x4e, 0x37, 0x0f, 0xbe,
  0x6b, 0x48, 0x90, 0x3d, 0xdb, 0xd8, 0x84, 0x3d, 0x81, 0x43, 0x29, 0xbe,
  0x95, 0x2c, 0x73, 0xbe, 0x4f, 0xbd, 0x93, 0xbc, 0xfa, 0xcb, 0x82, 0x3b,
  0x2a, 0xce, 0x2d, 0x3d, 0xe3, 0x88, 0xa4, 0xbd, 0x46, 0xce, 0x2d, 0x3c,
  0xe9, 0x58, 0xb3, 0x3d, 0xce, 0x34, 0xea, 0x3d, 0x03, 0xb4, 0x21, 0x3d,
  0x11, 0x08, 0x8e, 0x3e, 0xfa, 0xe3, 0x5e, 0x3d, 0x77, 0x91, 0x9d, 0xbc,
  0x48, 0x7d, 0x8a, 0xbd, 0x3a, 0x57, 0x06, 0x3d, 0x3a, 0xa0, 0x79, 0xbe,
  0x0d, 0xe3, 0xaf, 0xbd, 0x67, 0xd3, 0xff, 0xbd, 0x14, 0xe8, 0x57, 0xbd,
  0x13, 0xb4, 0xc5, 0xbc, 0xb0, 0xc4, 0x91, 0x3d, 0x42, 0x63, 0xa9, 0x3c,
  0xa0, 0xaa, 0x16, 0xbd, 0x1f, 0xd4, 0x0b, 0xbe, 0xce, 0xa4, 0x13, 0x3e,
  0x48, 0x85, 0x72, 0x3c, 0xa0, 0xc5, 0xe4, 0x3d, 0x43, 0xc1, 0x37, 0xbd,
  0x2f, 0x0b, 0x96, 0x3d, 0xc1, 0xea, 0xa7, 0x3d, 0x3e, 0xeb, 0xc3, 0x3d,
  0xbd, 0x28, 0xc4, 0x3d, 0x26, 0x3b, 0x3d, 0x3e, 0xa0, 0xaa, 0x96, 0xb8,
  0xaf, 0x79, 0x6b, 0x3c, 0xea, 0xd8, 0x4d, 0x3e, 0x8c, 0x82, 0x87, 0xbe,
  0x12, 0xbc, 0x0c, 0xbf, 0xb9, 0x3f, 0xc0, 0xbd, 0x99, 0x7c, 0x99, 0xbe,
  0x59, 0xcf, 0x59, 0xbd, 0x02, 0x27, 0xd5, 0xbd, 0x1e, 0xd2, 0xf1, 0xbd,
  0x9a, 0xff, 0xe1, 0xbd, 0x39, 0x21, 0xc1, 0xbe, 0xe9, 0x55, 0xb6, 0xbe,
  0xb6, 0x08, 0xe2, 0xbb, 0x99, 0x28, 0x16, 0x3d, 0xbd, 0xd8, 0xb7, 0xbd,
  0x9e, 0xb2, 0x32, 0xbd, 0x09, 0x28, 0x9d, 0xbe, 0xfc, 0x2f, 0x6e, 0xbe,
  0x13, 0x82, 0x07, 0xbe, 0xe1, 0x1b, 0x62, 0xbd, 0x19, 0xe9, 0x72, 0xbd,
  0x69, 0x25, 0xf1, 0x3d, 0x3e, 0xc1, 0xe4, 0xbb, 0xfe, 0x12, 0xbd, 0xbd,
  0x0f, 0x76, 0x7c, 0xbe, 0x69, 0x29, 0x40, 0xbe, 0xa3, 0xaa, 0x11, 0xbd,
  0xfa, 0x8e, 0xff, 0x3c, 0xad, 0xe7, 0xcd, 0x3d, 0xea, 0xcf, 0x05, 0x3e,
  0xc0, 0x1b, 0x80, 0x3e, 0xe3, 0xc4, 0x85, 0x3e, 0x0b, 0x8c, 0x86, 0xbe,
  0xc1, 0xc4, 0xf8, 0x3e, 0x9d, 0x89, 0x26, 0x3f, 0xce, 0x93, 0xa0, 0x3b,
  0x48, 0x64, 0x9e, 0xbe, 0x88, 0x7b, 0x02, 0x3f, 0x6a, 0x3d, 0xee, 0xbe,
  0xd9, 0xc6, 0x05, 0xbe, 0x63, 0x97, 0x78, 0x3d, 0x04, 0x3e, 0xf5, 0x3c,
  0xac, 0x86, 0xf3, 0xbd, 0xad, 0xb4, 0xaa, 0xbd, 0x20, 0x77, 0x31, 0xbe,
  0xf0, 0xcf, 0xc4, 0xbd, 0x67, 0x65, 0x44, 0xbe, 0xae, 0xa5, 0xcd, 0xbd,
  0xcc, 0xde, 0x04, 0x3e, 0x59, 0x31, 0xe7, 0x3b, 0x70, 0x71, 0x23, 0xbe,
  0x26, 0x97, 0xef, 0x3c, 0xe8, 0x4e, 0x93, 0x3c, 0x58, 0xb3, 0x95, 0x3e,
  0xac, 0x9d, 0xf9, 0xbb, 0x1e, 0x87, 0x0a, 0xbc, 0x67, 0x4e, 0xe6, 0xbd,
  0xaf, 0x65, 0x26, 0xbe, 0x71, 0xe6, 0x3b, 0xbe, 0xdc, 0xf7, 0x9c, 0xbd,
  0xf0, 0xd7, 0xaf, 0x3d, 0xc1, 0x22, 0x04, 0xbf, 0x53, 0x06, 0xe7, 0x3d,
  0x5b, 0xd7, 0x58, 0x3d, 0x72, 0x9a, 0xfa, 0xbd, 0xbc, 0xa7, 0xef, 0xbd,
  0xc6, 0xde, 0xff, 0xff, 0x10, 0x00, 0x00, 0x00, 0x08, 0x00, 0x00, 0x00,
  0x1c, 0x00, 0x00, 0x00, 0x38, 0x00, 0x00, 0x00, 0x04, 0x00, 0x00, 0x00,
  0x10, 0x00, 0x00, 0x00, 0x04, 0x00, 0x00, 0x00, 0x01, 0x00, 0x00, 0x00,
  0x08, 0x00, 0x00, 0x00, 0x1a, 0x00, 0x00, 0x00, 0x73, 0x65, 0x71, 0x75,
  0x65, 0x6e, 0x74, 0x69, 0x61, 0x6c, 0x2f, 0x63, 0x6f, 0x6e, 0x76, 0x32,
  0x64, 0x5f, 0x31, 0x2f, 0x43, 0x6f, 0x6e, 0x76, 0x32, 0x44, 0x00, 0x00,
  0xc0, 0xde, 0xff, 0xff, 0xb6, 0xdf, 0xff, 0xff, 0x04, 0x00, 0x00, 0x00,
  0x80, 0x01, 0x00, 0x00, 0x20, 0x02, 0x4d, 0x3d, 0xd7, 0x43, 0x5a, 0xbd,
  0xfe, 0x53, 0x3d, 0xbd, 0x87, 0x11, 0x11, 0xbe, 0xc3, 0x80, 0x30, 0xbe,
  0x1d, 0x4d, 0xba, 0xbe, 0x77, 0x25, 0x91, 0x3c, 0xd0, 0x55, 0xb8, 0x3e,
  0x2e, 0x84, 0xf6, 0x3d, 0xa3, 0x25, 0x7c, 0x3e, 0x23, 0x94, 0x71, 0x3d,
  0xa7, 0x19, 0xb9, 0x3e, 0xa9, 0xf6, 0x2f, 0xbe, 0xe5, 0x1a, 0x4b, 0xbd,
  0xaf, 0xdb, 0x10, 0x3d, 0x8d, 0xaf, 0xf2, 0xbe, 0xcb, 0xed, 0xe3, 0xbe,
  0x28, 0x90, 0x13, 0x3c, 0x0e, 0xa5, 0xa9, 0x3e, 0x32, 0x06, 0x80, 0x3e,
  0x0b, 0x39, 0x09, 0x3d, 0x7b, 0x95, 0x88, 0x3e, 0x88, 0x42, 0x9a, 0x3e,
  0x77, 0x32, 0x90, 0xbd, 0xb9, 0x77, 0xc9, 0xbd, 0xc7, 0x65, 0x23, 0xbe,
  0x93, 0x5e, 0x53, 0x3e, 0x90, 0xdb, 0x8d, 0xbd, 0x94, 0x13, 0x40, 0xbd,
  0x8d, 0xa4, 0xbe, 0x3d, 0xe4, 0xed, 0x2c, 0xbd, 0xba, 0x1a, 0xb0, 0x3c,
  0x95, 0x8d, 0xce, 0x3c, 0x63, 0xd5, 0x5c, 0xbd, 0x46, 0x5d, 0x13, 0x3d,
  0xb0, 0x97, 0xa0, 0x3c, 0x91, 0x54, 0x0b, 0x3e, 0x9b, 0x28, 0xd7, 0x3d,
  0x8e, 0x78, 0x20, 0xbd, 0x4a, 0x93, 0xa2, 0x3e, 0xa2, 0xfb, 0x81, 0x3e,
  0x70, 0x45, 0x02, 0x3d, 0xf8, 0xb3, 0x05, 0xbe, 0xcb, 0xe6, 0xe7, 0x3d,
  0x5e, 0x14, 0x88, 0x3e, 0xf1, 0x2e, 0x95, 0xbe, 0x9b, 0x38, 0x01, 0xbf,
  0x19, 0xbb, 0x37, 0xbe, 0x4b, 0x65, 0xeb, 0xbd, 0xae, 0x4c, 0x8e, 0x3d,
  0x56, 0xeb, 0x62, 0xbe, 0x44, 0x95, 0xe7, 0x3d, 0xab, 0x08, 0x71, 0x3d,
  0x9b, 0x81, 0xaa, 0xbd, 0xec, 0xdf, 0xad, 0xbd, 0x93, 0x37, 0x54, 0xbe,
  0xa0, 0x4c, 0x14, 0x3e, 0x13, 0x89, 0x0f, 0xbd, 0x9f, 0x0b, 0x83, 0xbd,
  0x6d, 0x9d, 0xfe, 0x3c, 0x16, 0x37, 0xc7, 0x3d, 0xea, 0xc7, 0x0d, 0x3e,
  0xac, 0x9d, 0x6b, 0xbe, 0x3b, 0xb8, 0xfd, 0xbd, 0x53, 0x28, 0x77, 0x3e,
  0x05, 0xb5, 0x12, 0xbe, 0x6c, 0xdc, 0xe3, 0x3d, 0xe7, 0xe7, 0x9f, 0xbc,
  0x6f, 0x95, 0xb5, 0xbd, 0x7a, 0xa6, 0x17, 0x3e, 0x6f, 0xa5, 0x6c, 0xbe,
  0x4f, 0xeb, 0x8d, 0x3e, 0x5f, 0xee, 0x9b, 0x3e, 0xae, 0xf7, 0xdc, 0xbd,
  0xda, 0x9d, 0x45, 0x3d, 0xa8, 0x7f, 0xf9, 0x3c, 0x67, 0xe6, 0xd0, 0x3d,
  0x74, 0x1c, 0x81, 0x3d, 0x1e, 0xc3, 0xdb, 0x3e, 0xd6, 0x17, 0xb3, 0xbd,
  0x7a, 0x28, 0x7b, 0xbe, 0xcb, 0xfd, 0xe2, 0xbe, 0x15, 0x9e, 0x80, 0x3e,
  0x3e, 0x8c, 0xc4, 0xbc, 0x10, 0xba, 0x84, 0x3e, 0x43, 0x14, 0x3d, 0xbe,
  0x49, 0x79, 0xd8, 0xbc, 0xf1, 0x2e, 0xbc, 0x3d, 0xa1, 0x6c, 0xfd, 0xbd,
  0x3c, 0x24, 0x21, 0x3e, 0xd9, 0x8e, 0x16, 0xbe, 0x39, 0x75, 0x1a, 0x3e,
  0xe3, 0xf9, 0xdc, 0x3d, 0x8d, 0xf3, 0x13, 0xbe, 0x98, 0xc7, 0x28, 0x3d,
  0x95, 0x0a, 0x83, 0x3d, 0x9e, 0xe0, 0xff, 0xff, 0x10, 0x00, 0x00, 0x00,
  0x07, 0x00, 0x00, 0x00, 0x1c, 0x00, 0x00, 0x00, 0x38, 0x00, 0x00, 0x00,
  0x04, 0x00, 0x00, 0x00, 0x08, 0x00, 0x00, 0x00, 0x04, 0x00, 0x00, 0x00,
  0x03, 0x00, 0x00, 0x00, 0x01, 0x00, 0x00, 0x00, 0x18, 0x00, 0x00, 0x00,
  0x73, 0x65, 0x71, 0x75, 0x65, 0x6e, 0x74, 0x69, 0x61, 0x6c, 0x2f, 0x63,
  0x6f, 0x6e, 0x76, 0x32, 0x64, 0x2f, 0x43, 0x6f, 0x6e, 0x76, 0x32, 0x44,
  0x00, 0x00, 0x00, 0x00, 0x98, 0xe0, 0xff, 0xff, 0x8e, 0xe1, 0xff, 0xff,
  0x04, 0x00, 0x00, 0x00, 0x00, 0x01, 0x00, 0x00, 0xd1, 0xa8, 0xb3, 0x3d,
  0x98, 0xb0, 0xf2, 0x3d, 0x94, 0x79, 0x0f, 0x3d, 0x0c, 0x04, 0xde, 0x3e,
  0x03, 0xfc, 0x95, 0xbe, 0x4b, 0xc1, 0x46, 0x3e, 0x4b, 0x9b, 0xa5, 0xbc,
  0x07, 0xda, 0xb8, 0x3e, 0x61, 0x01, 0xab, 0xbe, 0xdf, 0xb5, 0x53, 0xbd,
  0x5d, 0xf9, 0x90, 0xbe, 0x5f, 0x06, 0x76, 0x3e, 0x2d, 0x66, 0xd6, 0x3e,
  0x5b, 0xe9, 0xab, 0xbe, 0x12, 0xbc, 0xdf, 0x3e, 0x5b, 0xc7, 0xdf, 0xbe,
  0x47, 0x3e, 0x3f, 0xbf, 0x0d, 0x77, 0xb2, 0x3d, 0x97, 0x71, 0xbe, 0x3d,
  0x9b, 0x18, 0xbd, 0x3e, 0x34, 0x69, 0xe0, 0xbe, 0xdf, 0x56, 0x85, 0x3e,
  0x3c, 0xf6, 0x8b, 0xbd, 0xda, 0xee, 0xa0, 0x3e, 0xf2, 0xec, 0x20, 0xbe,
  0x3a, 0xe4, 0xe9, 0xbe, 0xca, 0x9d, 0xe8, 0xbe, 0x3e, 0x97, 0x91, 0x3e,
  0xde, 0x6e, 0xd1, 0xbe, 0xf7, 0xfc, 0xdb, 0xbe, 0xb7, 0x5d, 0x0f, 0xbf,
  0x1a, 0x69, 0x0b, 0xbf, 0x7c, 0x86, 0x01, 0xbf, 0x7b, 0x19, 0x23, 0xbf,
  0xcf, 0xe8, 0xa7, 0xbe, 0x79, 0xa3, 0x84, 0xbe, 0x5a, 0x08, 0xce, 0xbe,
  0xf2, 0x52, 0x75, 0xbe, 0x70, 0x0b, 0x01, 0xbf, 0xc3, 0x01, 0x5c, 0xbf,
  0xdc, 0x43, 0xb4, 0x3c, 0xfa, 0x7a, 0xa0, 0x3e, 0x08, 0x49, 0x1c, 0xbf,
  0x9a, 0x89, 0x0c, 0xbf, 0xbf, 0xea, 0xb5, 0xbe, 0xfd, 0x0b, 0x9b, 0xbe,
  0x6c, 0x53, 0xc7, 0xbc, 0xe7, 0x51, 0xe3, 0xbe, 0x7b, 0xea, 0x33, 0xbf,
  0xf7, 0xd7, 0x23, 0x3e, 0xe0, 0xd4, 0x18, 0xbd, 0x52, 0x2a, 0xb3, 0x3e,
  0xc8, 0x68, 0xdc, 0xbc, 0x18, 0xda, 0x2f, 0x3e, 0x41, 0xe6, 0xe7, 0x3c,
  0xa6, 0xc5, 0x8e, 0x3e, 0x2f, 0x56, 0x8e, 0xbe, 0xb3, 0x5a, 0xa7, 0xbe,
  0xf8, 0xfb, 0xa3, 0xbe, 0x48, 0x02, 0x80, 0x3e, 0x73, 0x5f, 0xfb, 0xbe,
  0x3f, 0x02, 0xb0, 0x3e, 0x57, 0xa7, 0x2e, 0xbf, 0xa3, 0xf0, 0x57, 0x3e,
  0xf6, 0xe1, 0xff, 0xff, 0x10, 0x00, 0x00, 0x00, 0x06, 0x00, 0x00, 0x00,
  0x14, 0x00, 0x00, 0x00, 0x30, 0x00, 0x00, 0x00, 0x02, 0x00, 0x00, 0x00,
  0x04, 0x00, 0x00, 0x00, 0x10, 0x00, 0x00, 0x00, 0x19, 0x00, 0x00, 0x00,
  0x73, 0x65, 0x71, 0x75, 0x65, 0x6e, 0x74, 0x69, 0x61, 0x6c, 0x2f, 0x64,
  0x65, 0x6e, 0x73, 0x65, 0x5f, 0x31, 0x2f, 0x4d, 0x61, 0x74, 0x4d, 0x75,
  0x6c, 0x00, 0x00, 0x00, 0xe8, 0xe1, 0xff, 0xff, 0xde, 0xe2, 0xff, 0xff,
  0x04, 0x00, 0x00, 0x00, 0x00, 0x1c, 0x00, 0x00, 0x82, 0x4b, 0x05, 0xbe,
  0xe2, 0x42, 0xc9, 0xbd, 0x2b, 0x25, 0x71, 0x3f, 0x89, 0x90, 0x36, 0x3e,
  0xbc, 0x15, 0x0f, 0xbe, 0x3b, 0x16, 0x9c, 0x3f, 0xce, 0x4a, 0x92, 0xbd,
  0x1c, 0x5a, 0x81, 0xbd, 0x85, 0x74, 0xac, 0xbd, 0xbc, 0xff, 0x42, 0xba,
  0x40, 0xd9, 0xcb, 0xbc, 0x50, 0x8f, 0xa7, 0x3d, 0xd0, 0xe4, 0x06, 0x3f,
  0x59, 0xe8, 0xc5, 0xbe, 0xca, 0x00, 0x35, 0xbe, 0xfc, 0xeb, 0x23, 0xbb,
  0xdd, 0x96, 0x3d, 0x3e, 0x0b, 0xf7, 0x15, 0x3d, 0x90, 0x5c, 0x9f, 0x3e,
  0x2f, 0x64, 0x6c, 0xbb, 0x57, 0x3a, 0xa4, 0xbb, 0x16, 0x81, 0x9b, 0x3e,
  0x5e, 0x16, 0xf1, 0xbd, 0x12, 0x9f, 0x83, 0xbb, 0x4b, 0xf8, 0x7d, 0xbd,
  0xd1, 0x0b, 0x54, 0xbe, 0xa7, 0xb8, 0x46, 0xbe, 0xe7, 0xc1, 0x3e, 0xbe,
  0x30, 0x35, 0x18, 0x3f, 0x8e, 0x9c, 0xd8, 0xbe, 0x39, 0xfe, 0x85, 0x3d,
  0xd5, 0xd4, 0x5c, 0xbe, 0xb8, 0xd2, 0x44, 0xbe, 0xf5, 0x0e, 0x9b, 0xbe,
  0xa0, 0x55, 0x44, 0x3f, 0x32, 0x49, 0xd3, 0xbd, 0x0d, 0x10, 0xef, 0x3c,
  0xa0, 0xff, 0x1d, 0x3f, 0x11, 0x3c, 0x6c, 0xbd, 0xc8, 0x16, 0xbc, 0xbd,
  0x33, 0xb4, 0x6c, 0xbe, 0xfa, 0x4c, 0x2d, 0xbe, 0x6f, 0x96, 0x8f, 0xbe,
  0x9c, 0x18, 0xe5, 0xbd, 0x20, 0xf9, 0x45, 0x3f, 0xa4, 0x7e, 0x82, 0xbe,
  0xc0, 0x13, 0x32, 0xbe, 0x3b, 0x41, 0x4a, 0xbe, 0xe1, 0x2b, 0x05, 0xbe,
  0xfd, 0xdd, 0xe4, 0xbd, 0xf0, 0x57, 0x18, 0x3f, 0xff, 0xf9, 0x23, 0x3e,
  0xba, 0x94, 0xfc, 0xbd, 0x2e, 0xa7, 0x8a, 0x3f, 0x5d, 0x1d, 0x46, 0x3d,
  0x51, 0x69, 0x3f, 0xbe, 0x7c, 0x16, 0x0b, 0xbe, 0xd9, 0x6a, 0x88, 0xbe,
  0xe7, 0x23, 0x68, 0xbe, 0xd9, 0x75, 0x1e, 0xbe, 0x13, 0x89, 0x3c, 0x3f,
  0x09, 0xff, 0xac, 0xbe, 0x40, 0x55, 0xfd, 0x3d, 0x9d, 0xda, 0xd7, 0x3b,
  0x0a, 0x68, 0x22, 0xbe, 0x74, 0x58, 0x92, 0xbe, 0x40, 0xf8, 0xa1, 0x3e,
  0xbc, 0x17, 0x1e, 0xbe, 0x72, 0x23, 0xac, 0x3d, 0x86, 0x16, 0x49, 0x3f,
  0x54, 0x6b, 0x12, 0xbd, 0xa1, 0x3d, 0x3b, 0x3e, 0x9f, 0xf6, 0xa7, 0xbe,
  0xed, 0x91, 0xb9, 0x3d, 0x46, 0x61, 0xae, 0xbb, 0x04, 0x7a, 0x08, 0x3e,
  0x68, 0xee, 0x05, 0x3f, 0x57, 0x06, 0x9b, 0xbe, 0x47, 0x24, 0x8d, 0xbe,
  0xe2, 0x07, 0x7a, 0xbe, 0xe6, 0x76, 0x0b, 0xbc, 0x48, 0x9d, 0x6d, 0x3d,
  0xdf, 0xb4, 0x0e, 0x3f, 0xf9, 0x46, 0x13, 0x3e, 0x0a, 0x61, 0x3a, 0xbd,
  0x43, 0x2e, 0x7b, 0x3f, 0x4e, 0x13, 0x3a, 0xbe, 0x51, 0x12, 0xb0, 0xbc,
  0x24, 0x44, 0x4a, 0xbb, 0x4f, 0xb7, 0x81, 0xbe, 0x0e, 0xd6, 0x51, 0xbe,
  0xbf, 0xe3, 0x23, 0x3d, 0x07, 0x11, 0x06, 0x3f, 0x8e, 0x3e, 0xca, 0xbe,
  0xfe, 0xa6, 0x7f, 0xbd, 0x63, 0x04, 0x81, 0xbe, 0x93, 0x92, 0x93, 0xbe,
  0x86, 0x71, 0xae, 0xbe, 0xe0, 0x7e, 0xe8, 0x3e, 0x66, 0xde, 0x4d, 0xbe,
  0xd1, 0xc1, 0xf3, 0xbd, 0x1f, 0x8c, 0xb0, 0x3e, 0x01, 0x9c, 0x7b, 0xbe,
  0x50, 0x25, 0xf2, 0xbd, 0xae, 0x82, 0x78, 0xbe, 0x73, 0xf3, 0xba, 0xbd,
  0x30, 0x44, 0xfa, 0xbd, 0x9f, 0x8c, 0x91, 0xbd, 0xb6, 0x14, 0x94, 0xbd,
  0x6c, 0xca, 0x32, 0xbe, 0xe7, 0x56, 0x4e, 0x3d, 0x7f, 0x5b, 0xb7, 0xbe,
  0xb7, 0x50, 0x5a, 0xbe, 0x0e, 0x1e, 0x7a, 0xbe, 0x90, 0x71, 0x2d, 0xbe,
  0xa5, 0xbf, 0x33, 0xbe, 0x66, 0xfe, 0x02, 0x3e, 0xd7, 0x30, 0xe6, 0x3e,
  0xdc, 0x4c, 0x20, 0xbe, 0xcf, 0x40, 0x37, 0xbe, 0x6e, 0xfd, 0xd5, 0x3d,
  0xef, 0x7a, 0xc2, 0xbe, 0x30, 0x33, 0x46, 0xbe, 0x80, 0xd3, 0x8d, 0xbe,
  0x07, 0x59, 0xb3, 0x3d, 0x0c, 0x7f, 0x69, 0x3d, 0xe3, 0x99, 0x4c, 0x3e,
  0x42, 0x20, 0xb5, 0xbe, 0xfc, 0x52, 0x77, 0x3d, 0xb0, 0x31, 0x13, 0x3e,
  0x49, 0x89, 0xcb, 0xbe, 0x93, 0x97, 0x94, 0xbe, 0x9a, 0x14, 0x88, 0x3e,
  0x43, 0xf7, 0x6d, 0x3e, 0x11, 0x2f, 0xd0, 0x3d, 0xfd, 0xe8, 0xb5, 0xbe,
  0x9e, 0x05, 0x31, 0x3e, 0xcf, 0x73, 0xc8, 0xbe, 0x52, 0x86, 0xee, 0xbc,
  0x62, 0x4a, 0x08, 0xbe, 0xf3, 0x60, 0xce, 0x3d, 0x5e, 0x9f, 0xa9, 0x3d,
  0xd1, 0x2c, 0x5d, 0xbd, 0xf7, 0x66, 0x65, 0x3d, 0x2f, 0x5e, 0x2c, 0x3e,
  0xc8, 0xd0, 0x0d, 0x3e, 0x8e, 0xaf, 0x97, 0xbe, 0xcd, 0x1e, 0x3e, 0xbe,
  0x71, 0xf4, 0xfd, 0x3e, 0x2c, 0x1c, 0xe0, 0x3e, 0x3d, 0x56, 0xd5, 0x3e,
  0xf1, 0xd5, 0x9a, 0xbd, 0x86, 0x54, 0x18, 0x3e, 0x68, 0xc2, 0xb9, 0xbe,
  0x01, 0xa6, 0x4e, 0x3e, 0xe5, 0x39, 0xc7, 0xbd, 0x7b, 0x1e, 0xd1, 0x3e,
  0x1e, 0xfd, 0x8f, 0x3d, 0xc9, 0xc9, 0x0d, 0xbe, 0xfa, 0xd3, 0x25, 0x3e,
  0xb3, 0x3f, 0x5b, 0x3d, 0x75, 0x7e, 0x77, 0x3e, 0x7b, 0x8b, 0x54, 0xbe,
  0x97, 0x17, 0x90, 0xbd, 0x7d, 0xb8, 0xbe, 0x3e, 0xde, 0xbf, 0x21, 0x3f,
  0x0d, 0x89, 0x13, 0x3f, 0x1f, 0x92, 0xc8, 0xbc, 0x85, 0x94, 0x3e, 0x3d,
  0x3b, 0xe4, 0x37, 0xbe, 0x15, 0xbe, 0x2f, 0x3e, 0xff, 0x8b, 0x95, 0xbe,
  0x82, 0xc6, 0x08, 0x3f, 0x4a, 0x37, 0x8c, 0x3d, 0x52, 0xca, 0x66, 0x3c,
  0x03, 0xd1, 0xa4, 0x3e, 0x1d, 0xc3, 0x2f, 0xbc, 0x5b, 0xc3, 0x23, 0x3e,
  0xe2, 0x77, 0x24, 0xbf, 0x4b, 0xc8, 0x0d, 0xbd, 0x2d, 0x69, 0x26, 0x3e,
  0xd1, 0xbe, 0x0c, 0x3f, 0x5b, 0x08, 0xcb, 0x3e, 0x51, 0xa0, 0xc3, 0xbb,
  0x7f, 0x1a, 0xa8, 0x3d, 0x0d, 0x6d, 0x9c, 0xbe, 0xd5, 0x65, 0x29, 0xbe,
  0x3d, 0x60, 0x97, 0xbe, 0x52, 0xa2, 0x38, 0x3e, 0x6d, 0x7f, 0x2a, 0x3d,
  0xd8, 0xb8, 0xfe, 0x3c, 0x79, 0xb3, 0x09, 0xbc, 0x75, 0x82, 0x2f, 0xbe,
  0xfa, 0x91, 0x1a, 0xbd, 0x60, 0xc1, 0xef, 0xbe, 0x63, 0x47, 0x62, 0xbd,
  0x6b, 0xc8, 0x3f, 0x3e, 0x40, 0xc2, 0xd9, 0x3e, 0x6f, 0x47, 0x20, 0x3d,
  0x7e, 0x99, 0x88, 0xbd, 0x72, 0x5b, 0x6d, 0xbd, 0xde, 0x31, 0xaa, 0xbe,
  0x82, 0x2b, 0xcb, 0xbd, 0x5f, 0x69, 0xa4, 0xbe, 0x85, 0xa2, 0xa4, 0x3e,
  0xd5, 0x12, 0xb3, 0x3c, 0xe9, 0xb9, 0x31, 0xbe, 0xba, 0xa1, 0xe8, 0xbd,
  0x73, 0xc5, 0x2f, 0xbe, 0x65, 0x97, 0x25, 0xbe, 0xe4, 0xb1, 0x37, 0xbe,
  0x14, 0xdb, 0x74, 0x3c, 0xa7, 0x8b, 0x07, 0x3d, 0xd6, 0x97, 0xab, 0x3e,
  0xa7, 0x38, 0xa4, 0xbd, 0x9f, 0xce, 0x51, 0xbe, 0xfc, 0x0e, 0xf1, 0xbc,
  0x38, 0x61, 0x07, 0xbe, 0xeb, 0x28, 0x10, 0xbe, 0xe2, 0x9f, 0x33, 0xbe,
  0xc7, 0xd8, 0x48, 0x3e, 0x7f, 0x84, 0x93, 0xbc, 0xd0, 0x3b, 0xd3, 0xbd,
  0x3e, 0xe1, 0x7b, 0x3d, 0x5c, 0x9b, 0xf9, 0x3d, 0x7e, 0xca, 0xa3, 0x3d,
  0x39, 0x74, 0x32, 0xbd, 0xa2, 0x39, 0x5e, 0xbe, 0x68, 0x8c, 0x82, 0x3d,
  0xad, 0x4d, 0x19, 0x3e, 0x68, 0x1e, 0xfe, 0x3d, 0x37, 0xe1, 0xe0, 0xbd,
  0x7f, 0x31, 0x1d, 0xbd, 0x2d, 0xd4, 0xbd, 0xbc, 0x58, 0xe5, 0x4a, 0x3e,
  0x2a, 0x80, 0x20, 0xbb, 0xcc, 0x39, 0x12, 0x3e, 0x20, 0x84, 0xc0, 0x3a,
  0x4b, 0x9f, 0x8a, 0xbe, 0xe2, 0xd1, 0x6b, 0x3e, 0xcb, 0x85, 0x84, 0x3c,
  0xbf, 0x0b, 0xb5, 0xbc, 0x6a, 0xe4, 0x39, 0xbe, 0x40, 0x94, 0x02, 0xbe,
  0x36, 0xf9, 0x88, 0xbe, 0xda, 0x35, 0x25, 0xbe, 0x27, 0x7d, 0x6c, 0x3d,
  0x4b, 0xda, 0xf7, 0xbd, 0x2c, 0x1d, 0x89, 0x3d, 0xf3, 0xb8, 0xc7, 0x3d,
  0x65, 0x23, 0x31, 0xbe, 0x18, 0x96, 0xb1, 0x3d, 0x67, 0x98, 0x87, 0x3e,
  0x7e, 0xc7, 0x14, 0xbd, 0xd7, 0x6f, 0x8d, 0x3e, 0x35, 0xad, 0x49, 0x3e,
  0xc4, 0x86, 0x85, 0xbe, 0x2c, 0x7c, 0x91, 0xbe, 0x48, 0x7b, 0x75, 0xbd,
  0xd6, 0x48, 0x80, 0xbd, 0x33, 0xe0, 0xf5, 0xbe, 0x68, 0x2f, 0xae, 0xbd,
  0xa4, 0xd7, 0xd7, 0xbd, 0x50, 0xa9, 0xf1, 0x3b, 0xeb, 0x4d, 0xcf, 0xbc,
  0x0f, 0x27, 0xb4, 0x3d, 0xa3, 0xfa, 0x9a, 0xbe, 0x01, 0x54, 0x71, 0x3d,
  0xca, 0x0e, 0x54, 0x3d, 0x06, 0x08, 0x31, 0xbd, 0xae, 0x1e, 0x12, 0x3d,
  0xc9, 0x9f, 0xbe, 0xbe, 0x2c, 0x65, 0x1a, 0xbe, 0x25, 0x19, 0xeb, 0xbe,
  0xde, 0xb2, 0x83, 0x3d, 0x8d, 0xb2, 0xc4, 0xbe, 0x00, 0x3a, 0xad, 0xbe,
  0x3f, 0x80, 0x47, 0xbe, 0x6a, 0x6e, 0xce, 0xbe, 0x7f, 0xf4, 0x4f, 0xbe,
  0x95, 0xf8, 0x2f, 0xbc, 0x7d, 0x70, 0xad, 0xbe, 0x4f, 0x9b, 0x12, 0xbe,
  0xab, 0xe2, 0xd5, 0xbc, 0x5c, 0x07, 0x2e, 0x3d, 0xdf, 0xf2, 0xa8, 0xbd,
  0x1f, 0xe0, 0x51, 0x3e, 0xe0, 0x1d, 0xbd, 0xbe, 0xba, 0x1a, 0x1b, 0xbe,
  0xd2, 0x86, 0x7a, 0x3c, 0xb7, 0xf2, 0x1d, 0xbe, 0x20, 0x45, 0x3f, 0xbe,
  0x0a, 0xd2, 0xee, 0xbd, 0x27, 0xd3, 0x47, 0x3e, 0xad, 0x23, 0x0f, 0xbe,
  0xc2, 0x31, 0x30, 0xbe, 0xfe, 0xfd, 0xbe, 0xbd, 0x78, 0x45, 0xa2, 0xbb,
  0xbb, 0xe6, 0x8d, 0xbd, 0x59, 0xea, 0x10, 0xbd, 0xfe, 0x1f, 0xa2, 0x3d,
  0x47, 0x94, 0xd4, 0xbd, 0xc9, 0xd4, 0x62, 0x3e, 0x10, 0x42, 0xf0, 0xbd,
  0x7b, 0x0b, 0x14, 0xbe, 0x56, 0x96, 0xa0, 0x3c, 0xa0, 0x64, 0xb4, 0xbd,
  0x95, 0x24, 0x7d, 0xbe, 0x7d, 0xd9, 0xe7, 0xbc, 0x9b, 0x61, 0x3c, 0xbe,
  0xab, 0x0a, 0xb2, 0xbe, 0xa2, 0x8e, 0xfa, 0xbd, 0x0e, 0x2c, 0xda, 0xbd,
  0xa8, 0x9c, 0x78, 0xbe, 0x98, 0xcd, 0xbb, 0xbd, 0x79, 0x1b, 0xf7, 0x3c,
  0x7e, 0x2b, 0x36, 0xbe, 0x01, 0xbc, 0xc2, 0xbd, 0x20, 0x91, 0x83, 0x3e,
  0x6f, 0x36, 0x79, 0xbd, 0xe9, 0xfe, 0x28, 0xbe, 0x7e, 0x81, 0x5e, 0xbd,
  0x83, 0x49, 0xe1, 0xbd, 0x2d, 0x68, 0xdb, 0xbc, 0xd6, 0x5f, 0x2a, 0xbe,
  0x41, 0x17, 0x86, 0xbe, 0x3f, 0x18, 0x65, 0xbe, 0xca, 0x9a, 0x09, 0xbe,
  0xaa, 0x3e, 0x88, 0xbd, 0x8f, 0xc6, 0x4d, 0xbe, 0x23, 0x17, 0x93, 0x3d,
  0x41, 0xb3, 0xf7, 0x3c, 0x32, 0x17, 0xc0, 0xbd, 0x3e, 0xd6, 0xe6, 0xbd,
  0x17, 0x14, 0x81, 0x3c, 0x7b, 0x39, 0x8d, 0x3c, 0x4e, 0x35, 0x66, 0xbe,
  0x2d, 0x69, 0xdd, 0xbd, 0x03, 0x2e, 0xe3, 0x3e, 0x92, 0x70, 0xc1, 0x3e,
  0xa6, 0xf0, 0xf2, 0xbe, 0x43, 0x26, 0x56, 0x3e, 0x46, 0x87, 0x24, 0xbe,
  0x12, 0x25, 0x5e, 0x3e, 0xe0, 0x72, 0xcf, 0xbd, 0x21, 0x37, 0x0f, 0x3d,
  0xd3, 0xc9, 0x3c, 0xbe, 0x23, 0xed, 0x6c, 0x3e, 0x2f, 0xfd, 0x8f, 0x3d,
  0xe0, 0x76, 0x38, 0xbd, 0xb9, 0x72, 0x16, 0xbd, 0xbc, 0xa9, 0xc4, 0xbe,
  0xa6, 0x31, 0x7d, 0xbd, 0x00, 0xdf, 0x7a, 0xbd, 0x92, 0xe4, 0xc5, 0x3e,
  0x48, 0x5e, 0x8b, 0x3d, 0x1b, 0xe5, 0x07, 0xbe, 0x6b, 0x51, 0x9c, 0x3e,
  0x49, 0xd4, 0x7e, 0xbe, 0x71, 0x36, 0xd3, 0x3d, 0x33, 0x4b, 0x68, 0xbd,
  0x97, 0xa1, 0x30, 0xbc, 0x5a, 0x2b, 0xe7, 0x3c, 0x61, 0xa0, 0xa1, 0x3d,
  0x2e, 0x62, 0x94, 0xbe, 0x5b, 0xa4, 0x97, 0xbd, 0xca, 0xd4, 0x15, 0xbf,
  0xcc, 0x24, 0x95, 0xbc, 0x65, 0x27, 0x33, 0x3e, 0x41, 0x63, 0x85, 0x3e,
  0x74, 0xbd, 0xc6, 0x3e, 0xbc, 0xaa, 0x69, 0xbe, 0x79, 0x2b, 0x2a, 0xbe,
  0x13, 0x6c, 0xa2, 0x3e, 0xa2, 0xd9, 0x86, 0xbe, 0x64, 0xab, 0x14, 0x3e,
  0x3d, 0x9f, 0xcc, 0xbd, 0x36, 0x9f, 0x2e, 0x3d, 0x8c, 0xb3, 0x4b, 0x3d,
  0x03, 0xd7, 0xa8, 0x3e, 0x84, 0x54, 0xa9, 0x3e, 0x22, 0xf7, 0x79, 0xbd,
  0x16, 0x62, 0x66, 0xbd, 0x1c, 0x2a, 0x0a, 0x3f, 0xc3, 0xbc, 0x80, 0x3e,
  0x55, 0x92, 0xaf, 0x3e, 0x2d, 0xc3, 0x8d, 0x3e, 0x13, 0x59, 0x9c, 0x3e,
  0xd5, 0x76, 0xc1, 0xbe, 0xb1, 0x29, 0x62, 0x3e, 0xe5, 0x6e, 0x91, 0xbd,
  0x02, 0xee, 0x39, 0xbc, 0x5b, 0x5e, 0x0b, 0xbd, 0x9e, 0x28, 0xce, 0x3e,
  0xba, 0x6f, 0x23, 0x3d, 0xb2, 0xff, 0x34, 0x3e, 0x17, 0xb5, 0x97, 0xbc,
  0x06, 0x19, 0xc3, 0xbc, 0x70, 0x88, 0x8f, 0x3d, 0xce, 0x4a, 0x9b, 0x3e,
  0x21, 0xd4, 0x6c, 0xbe, 0x75, 0xae, 0x77, 0xbd, 0x74, 0x93, 0x23, 0x3e,
  0x54, 0xca, 0x6f, 0x3e, 0xcd, 0x8b, 0x1e, 0xbf, 0xae, 0xc9, 0x81, 0xbe,
  0xd0, 0x80, 0x1a, 0x3d, 0xb1, 0x22, 0xb6, 0x3e, 0xc5, 0x8e, 0xb0, 0x3d,
  0x03, 0xfb, 0x8d, 0x3e, 0xee, 0x13, 0x62, 0xbe, 0xaf, 0xf6, 0xd8, 0x3d,
  0x37, 0xe0, 0x74, 0x3d, 0x66, 0x2b, 0x15, 0x3c, 0x1a, 0xb7, 0xb9, 0x3c,
  0x36, 0xf2, 0x5b, 0xbe, 0x35, 0xeb, 0x7f, 0xbe, 0x07, 0x7c, 0xf9, 0xbd,
  0xc5, 0x01, 0x1a, 0x3e, 0x5c, 0x1d, 0x2b, 0x3e, 0xa6, 0xa1, 0xbc, 0xbe,
  0x59, 0xa8, 0x02, 0xbe, 0xf3, 0x29, 0x7a, 0xbe, 0x57, 0x80, 0xdd, 0x3e,
  0xbb, 0xa7, 0xb8, 0x3d, 0xc2, 0x8c, 0x7e, 0x3e, 0x38, 0x2e, 0x89, 0xbe,
  0x5f, 0x2e, 0x1e, 0x3e, 0xe6, 0xbb, 0x59, 0x3d, 0x9b, 0x9e, 0xd7, 0x3c,
  0x2a, 0x89, 0x92, 0x3e, 0x2b, 0x57, 0x8d, 0xbe, 0xa3, 0xd5, 0x72, 0xbd,
  0xa2, 0x84, 0x09, 0x3d, 0x39, 0x84, 0xf4, 0x3c, 0x93, 0xcb, 0xa1, 0x3d,
  0x9f, 0x37, 0x10, 0xbd, 0x97, 0x7f, 0x28, 0xbd, 0xa6, 0x2a, 0x51, 0x3c,
  0xef, 0xa6, 0x05, 0x3e, 0xdf, 0x63, 0x22, 0xbe, 0xd8, 0x0f, 0xdb, 0x3d,
  0xf2, 0xa0, 0xa6, 0xbe, 0x2d, 0x7f, 0xbb, 0x3d, 0xab, 0x2f, 0x8c, 0xbe,
  0x87, 0x93, 0x0c, 0xbd, 0x02, 0x59, 0xf6, 0x3d, 0x96, 0x12, 0x94, 0xbe,
  0xc9, 0x94, 0xdc, 0xbd, 0x12, 0x86, 0x6c, 0xbe, 0x4c, 0x9c, 0x72, 0xbe,
  0x4d, 0xcc, 0xac, 0xbd, 0x23, 0x06, 0x91, 0xbd, 0xea, 0x4a, 0x57, 0xbe,
  0xb4, 0x95, 0x2d, 0xbd, 0x26, 0x2e, 0x58, 0x3d, 0x66, 0x60, 0x78, 0xbe,
  0x10, 0x28, 0x1b, 0xbe, 0x7b, 0xd5, 0xea, 0x3d, 0x10, 0xd3, 0x04, 0xbe,
  0x35, 0x49, 0x3a, 0xbe, 0xe9, 0x75, 0x30, 0xbe, 0xc1, 0x53, 0x3f, 0xbe,
  0xb3, 0x1c, 0x09, 0x3e, 0xc9, 0x33, 0xcc, 0xbd, 0xfc, 0xce, 0x39, 0x3d,
  0xce, 0x6d, 0x3c, 0x3e, 0x37, 0x09, 0x1b, 0x3d, 0xb0, 0x5a, 0x54, 0xbe,
  0xb3, 0x61, 0x3b, 0xbe, 0xfb, 0x81, 0x9c, 0xbc, 0x89, 0xe0, 0xc2, 0xbc,
  0x82, 0x0e, 0xa4, 0xbd, 0xf8, 0x17, 0x6e, 0xbd, 0x8d, 0xc1, 0x9d, 0xbc,
  0x07, 0xf8, 0x8f, 0xbc, 0x5c, 0x61, 0xa2, 0xbd, 0x43, 0xf8, 0x93, 0xbd,
  0xae, 0x30, 0x0c, 0x3d, 0x76, 0x1f, 0x3f, 0xbe, 0x11, 0xd9, 0x90, 0xbe,
  0xe2, 0x6f, 0x6d, 0x3d, 0xd1, 0x4f, 0xe8, 0xbc, 0xe5, 0x65, 0xb9, 0xbd,
  0x6c, 0x5e, 0x19, 0xbe, 0x6f, 0x96, 0x39, 0x3d, 0x68, 0x37, 0xdc, 0x3d,
  0x8f, 0xee, 0x56, 0xbe, 0xb4, 0x9d, 0x81, 0xbe, 0x3f, 0x83, 0x3e, 0xbd,
  0x9a, 0x64, 0x74, 0x3d, 0xcd, 0xca, 0x3e, 0xbe, 0x54, 0x49, 0x92, 0x3a,
  0x35, 0x7a, 0x75, 0xbe, 0x1c, 0xee, 0x10, 0xbe, 0x16, 0x3a, 0xec, 0x3c,
  0xa6, 0xc6, 0x67, 0x3d, 0x2f, 0xd3, 0x04, 0xbe, 0xa1, 0xff, 0x48, 0x3e,
  0xb2, 0xd7, 0x3d, 0xbe, 0x7d, 0xa5, 0x3a, 0x3d, 0x5a, 0xcb, 0x42, 0xbc,
  0x67, 0xf1, 0xf6, 0x3d, 0x20, 0xb2, 0x00, 0x3e, 0xe0, 0x55, 0xc7, 0xbd,
  0xed, 0xf7, 0x75, 0xbd, 0xd0, 0xef, 0x34, 0xbd, 0x6c, 0x6b, 0xec, 0xbd,
  0x34, 0x39, 0x05, 0xbd, 0x18, 0xaa, 0x1e, 0xbe, 0x21, 0xfe, 0x86, 0xbc,
  0x1f, 0x85, 0x42, 0x3d, 0x5e, 0x68, 0x29, 0xbe, 0x50, 0x24, 0x61, 0xbe,
  0xa5, 0x6c, 0x7c, 0xbd, 0xb7, 0x43, 0x40, 0x3d, 0x81, 0xa8, 0x2e, 0xbe,
  0x32, 0xb8, 0x89, 0xbc, 0x09, 0xfb, 0x40, 0xbe, 0xce, 0x32, 0x19, 0xbe,
  0xb7, 0xf5, 0xd6, 0xbc, 0x4d, 0x9a, 0xb8, 0x3d, 0x14, 0xf1, 0xf9, 0xbb,
  0x89, 0x3e, 0xb1, 0xbd, 0xe9, 0x5d, 0x74, 0xbd, 0xf3, 0xc9, 0xa3, 0x3c,
  0xb0, 0xfc, 0xb4, 0xbd, 0x64, 0x5e, 0x79, 0xbc, 0xd3, 0x40, 0x87, 0xbe,
  0xca, 0xee, 0x1e, 0xbd, 0x8a, 0x0f, 0x1d, 0xbc, 0x88, 0xae, 0x1b, 0xbe,
  0x0a, 0xf7, 0xb9, 0xbd, 0x40, 0xf5, 0x40, 0xbe, 0x49, 0xc4, 0x06, 0xbe,
  0x9c, 0x69, 0x58, 0xbd, 0x38, 0xde, 0x17, 0xbe, 0x41, 0xe3, 0x0e, 0xbe,
  0x7a, 0x2d, 0xb8, 0x3b, 0x57, 0x41, 0xdf, 0x3b, 0x70, 0x42, 0x49, 0xbe,
  0x1d, 0x26, 0x65, 0xbe, 0x30, 0xf5, 0x99, 0xbd, 0x10, 0x21, 0x89, 0xbd,
  0xa8, 0xc4, 0xe9, 0x3d, 0x61, 0xfa, 0xd2, 0xbd, 0x68, 0x3c, 0x56, 0xbe,
  0x86, 0x73, 0x58, 0x3d, 0x05, 0x7d, 0x40, 0xbe, 0x40, 0x54, 0xe2, 0xbc,
  0x01, 0x8e, 0x1f, 0xbd, 0x67, 0xf7, 0x1a, 0x3c, 0x9a, 0x53, 0x8a, 0xbe,
  0xca, 0x07, 0xbe, 0x3a, 0xaa, 0xe4, 0xaf, 0xbd, 0x67, 0x96, 0xe9, 0xbb,
  0x9f, 0xaf, 0x12, 0x3d, 0xbb, 0x81, 0x9b, 0xbe, 0x78, 0xa5, 0x8d, 0xbb,
  0x85, 0x9e, 0x43, 0xbd, 0x04, 0x1d, 0x4c, 0x3d, 0x92, 0x44, 0x3b, 0xbe,
  0x2f, 0x60, 0xcb, 0x3d, 0x1c, 0x3d, 0xf6, 0x3d, 0x6d, 0xa4, 0xa9, 0xbc,
  0x96, 0xc4, 0x42, 0xbe, 0x05, 0x91, 0x73, 0x3d, 0xf9, 0x1f, 0x8f, 0xbd,
  0x60, 0x8c, 0x80, 0xbe, 0x04, 0x4b, 0x20, 0xbe, 0xea, 0xfe, 0xcb, 0xbd,
  0x1d, 0x65, 0xa0, 0xbe, 0x4b, 0x84, 0x0e, 0xbc, 0x31, 0xf6, 0x82, 0xbe,
  0x22, 0x9f, 0x91, 0xbe, 0x53, 0xc3, 0x9b, 0xbe, 0xd4, 0xee, 0xe3, 0xbd,
  0x19, 0x79, 0x82, 0xbd, 0xfd, 0x1e, 0xb1, 0xbe, 0x9c, 0xd9, 0x4b, 0xbe,
  0x67, 0x8a, 0xb9, 0x3d, 0x87, 0xe5, 0x6f, 0xbd, 0xaa, 0x82, 0x52, 0xbd,
  0x63, 0x53, 0x55, 0x3d, 0x3f, 0x84, 0xb4, 0xbe, 0x10, 0xe9, 0xa3, 0xbe,
  0x38, 0xf2, 0xe2, 0x3d, 0xa9, 0x42, 0x6f, 0xbe, 0xa5, 0xfa, 0x9b, 0xbc,
  0x6d, 0x03, 0x51, 0xbe, 0x88, 0x23, 0x45, 0xbe, 0xd3, 0x61, 0x6b, 0x3d,
  0x71, 0x60, 0x2d, 0x3d, 0x25, 0xe4, 0x01, 0xbd, 0x36, 0x15, 0x0c, 0xbe,
  0xc9, 0xcb, 0x0d, 0x3e, 0x85, 0x3d, 0x82, 0x3c, 0xc3, 0xb2, 0xb6, 0xbe,
  0x70, 0xe3, 0x8d, 0xbc, 0x29, 0xd9, 0xf0, 0x3d, 0x11, 0x0d, 0xe2, 0xbe,
  0x9e, 0x3d, 0xfe, 0x3b, 0x56, 0x06, 0xb8, 0x3d, 0x7f, 0xaa, 0x65, 0xbe,
  0x04, 0x12, 0xe8, 0x3d, 0xb7, 0x8b, 0xe0, 0xbd, 0xa3, 0x1c, 0x9e, 0xbe,
  0xe2, 0xb9, 0x99, 0xbd, 0xb4, 0xbb, 0x80, 0xbe, 0xd4, 0xb0, 0x01, 0xbf,
  0x3f, 0x14, 0x88, 0x3e, 0x0a, 0x47, 0x48, 0xbe, 0xc5, 0xc1, 0x00, 0xbe,
  0xe0, 0x40, 0xdd, 0xbc, 0x4b, 0x7c, 0x3d, 0xbe, 0xe7, 0x8f, 0x9f, 0xbe,
  0x54, 0xf5, 0x79, 0xbe, 0xbc, 0x7e, 0x0b, 0xbd, 0x96, 0xe5, 0x29, 0x3d,
  0x7a, 0xda, 0x03, 0xbf, 0x15, 0x8f, 0xa3, 0x3d, 0x0f, 0x41, 0x3e, 0xbe,
  0x36, 0x73, 0xe8, 0xbe, 0x74, 0xac, 0x50, 0xbe, 0x65, 0x30, 0x65, 0x3e,
  0x97, 0x38, 0x89, 0xbc, 0x44, 0xb0, 0xa9, 0x3e, 0xe9, 0x45, 0xa5, 0xbe,
  0x92, 0xd0, 0x86, 0xbd, 0xe7, 0x44, 0x8b, 0x3e, 0x6b, 0xac, 0x7b, 0xbe,
  0x1d, 0xd8, 0x21, 0xbe, 0x69, 0x83, 0x97, 0xbc, 0x5d, 0xd0, 0x2c, 0xbd,
  0x7a, 0x0a, 0xb2, 0x3e, 0x06, 0xa7, 0xa7, 0xbd, 0x2e, 0x04, 0xd4, 0xbd,
  0x31, 0xe0, 0xf1, 0xbd, 0x8a, 0xc9, 0x9f, 0xbe, 0xef, 0x5c, 0x5e, 0x3e,
  0x83, 0x65, 0x72, 0x3e, 0x1b, 0x86, 0x06, 0x3e, 0x2a, 0x0f, 0xc6, 0x3e,
  0xdd, 0x56, 0x5e, 0xbe, 0x17, 0x76, 0x0e, 0x3c, 0x02, 0xfd, 0xfc, 0xbd,
  0xd1, 0x90, 0x69, 0xbd, 0x0f, 0x30, 0x51, 0xbd, 0x1a, 0xb0, 0x32, 0x3e,
  0xab, 0x90, 0x0d, 0x3d, 0x17, 0x67, 0x89, 0x3e, 0x39, 0x89, 0x5d, 0x39,
  0xd8, 0x50, 0xd7, 0x3d, 0x8d, 0x76, 0xdd, 0x3c, 0xa1, 0x86, 0x97, 0xbe,
  0xfd, 0x36, 0x84, 0x3e, 0xe4, 0xb6, 0x34, 0x3e, 0x39, 0x2d, 0x32, 0xbd,
  0x4f, 0x8e, 0xa8, 0x3d, 0x2e, 0xb5, 0x01, 0xbe, 0x78, 0xf9, 0x03, 0xbd,
  0x53, 0x8e, 0x1f, 0xbd, 0x67, 0xb1, 0x4c, 0xbc, 0x5b, 0x9a, 0x96, 0x3d,
  0xd1, 0x3c, 0x04, 0x3e, 0xa9, 0xcb, 0x0c, 0x3e, 0xef, 0xce, 0xcd, 0x3e,
  0xdc, 0x4a, 0x81, 0x3c, 0x9c, 0x6d, 0x44, 0x3e, 0xaf, 0x9f, 0x27, 0x3c,
  0x32, 0x6b, 0x27, 0x3e, 0xdd, 0x7e, 0x00, 0x3e, 0xe6, 0x88, 0x8e, 0xbe,
  0x0e, 0x42, 0x80, 0xbe, 0xb9, 0x15, 0x03, 0xbf, 0x13, 0x10, 0x94, 0xbe,
  0x0b, 0x7c, 0x14, 0x3d, 0x57, 0xb4, 0x9f, 0x3e, 0x91, 0x26, 0xcd, 0xbd,
  0x9c, 0x78, 0x7b, 0xbe, 0x08, 0xd5, 0xee, 0x3d, 0x12, 0x61, 0x86, 0xbe,
  0x53, 0x76, 0x2f, 0xbe, 0x41, 0x05, 0x80, 0xbe, 0x0c, 0xc3, 0x66, 0x3d,
  0xf2, 0xb2, 0x5d, 0x3c, 0x2d, 0xe1, 0xb7, 0x3e, 0xca, 0x45, 0xba, 0xbe,
  0xfb, 0x4d, 0xff, 0xbd, 0xa0, 0x83, 0x28, 0x3e, 0xb6, 0xf7, 0x49, 0xbf,
  0x2c, 0x46, 0xb6, 0xbe, 0x5a, 0x25, 0xcc, 0x3e, 0x57, 0x43, 0xbb, 0x3e,
  0x75, 0x93, 0x18, 0x3e, 0x57, 0x84, 0xdb, 0xbe, 0xd8, 0x03, 0xff, 0x3d,
  0x5a, 0xad, 0x6f, 0xbe, 0xb4, 0x95, 0x71, 0xbb, 0x86, 0x3e, 0xd4, 0x3d,
  0x32, 0x7e, 0x50, 0x3e, 0x4a, 0xeb, 0x3d, 0x3d, 0x81, 0x4d, 0x17, 0x3d,
  0xb8, 0x63, 0x2c, 0xbc, 0x2b, 0x67, 0x1c, 0x3e, 0x0c, 0x08, 0xdf, 0x3d,
  0xee, 0xc6, 0xe7, 0xbe, 0x73, 0x82, 0x6b, 0xbe, 0x78, 0x2c, 0xcc, 0x3e,
  0x93, 0xb5, 0xaa, 0x3e, 0x07, 0x9c, 0xbd, 0x3e, 0x59, 0x41, 0xa4, 0xbe,
  0xb2, 0x6c, 0x58, 0x3e, 0xb5, 0x0a, 0x4e, 0xbe, 0x78, 0xc9, 0x1d, 0x3e,
  0x6b, 0x7e, 0x4b, 0xbe, 0x58, 0x2e, 0xba, 0x3e, 0xb6, 0xb3, 0x79, 0x3d,
  0xf4, 0x33, 0xc5, 0x3d, 0xdf, 0x32, 0x84, 0x3e, 0xe9, 0x4b, 0xba, 0x3d,
  0xd9, 0x16, 0x0f, 0x3e, 0x5a, 0xad, 0x2d, 0xbe, 0xa9, 0x60, 0x50, 0x3c,
  0x3e, 0x94, 0xbe, 0x3e, 0x1c, 0x7f, 0xbe, 0x3e, 0xe9, 0xd0, 0xcd, 0x3e,
  0xb2, 0xae, 0x83, 0xbe, 0xfa, 0x8d, 0x0c, 0x3d, 0xc7, 0x58, 0x23, 0x3d,
  0xc6, 0x03, 0x49, 0x3e, 0x5f, 0x98, 0x12, 0xbe, 0xf1, 0xa5, 0x0f, 0x3e,
  0xf3, 0x67, 0x1f, 0x3d, 0x5f, 0x2f, 0x3a, 0x3e, 0x4e, 0x14, 0x42, 0xbd,
  0x62, 0x11, 0x3c, 0xbd, 0x0f, 0xbc, 0x82, 0x3d, 0xed, 0x8a, 0x83, 0xbf,
  0xd5, 0xee, 0x16, 0xbe, 0x0b, 0xd4, 0xa5, 0x3e, 0xfd, 0x7a, 0x1e, 0x3f,
  0x59, 0x8f, 0x76, 0x3e, 0x5f, 0x6b, 0x86, 0xbe, 0x24, 0x4b, 0x99, 0x3d,
  0xe9, 0xe1, 0xaf, 0xbd, 0xbc, 0x42, 0x3f, 0xbe, 0x3f, 0x14, 0xbe, 0xbd,
  0xe5, 0x88, 0xae, 0x3e, 0xe9, 0x1d, 0x3b, 0x3d, 0x8c, 0xdf, 0xb9, 0x3d,
  0x79, 0xa7, 0xfe, 0x3d, 0x9d, 0x06, 0x51, 0xbe, 0xac, 0x8f, 0xaa, 0x3c,
  0x09, 0xcf, 0x0f, 0xbf, 0x65, 0x90, 0x51, 0xbd, 0xa7, 0x61, 0xe8, 0x3d,
  0xe4, 0xd1, 0x16, 0x3f, 0x33, 0x4e, 0x23, 0x3c, 0xf7, 0x31, 0x79, 0xbd,
  0xcf, 0xce, 0x65, 0xbd, 0x38, 0x5f, 0x90, 0xbe, 0x48, 0xd5, 0x58, 0xbe,
  0x91, 0xc6, 0xbf, 0xbe, 0x04, 0xb7, 0xfa, 0x3e, 0x39, 0x49, 0xd3, 0x3c,
  0x03, 0xb0, 0x34, 0xbe, 0xc6, 0x67, 0xaa, 0xbd, 0xde, 0x8b, 0xb9, 0xbd,
  0x7f, 0x94, 0x40, 0xbe, 0xda, 0x05, 0x87, 0xbd, 0x07, 0x49, 0xae, 0x3c,
  0x45, 0x9d, 0x48, 0x3d, 0x90, 0x95, 0x91, 0x3e, 0xf3, 0x02, 0xeb, 0xbd,
  0x84, 0x61, 0xc3, 0xbd, 0x1c, 0x2e, 0x18, 0xbd, 0x9f, 0xc3, 0x09, 0xbe,
  0x4a, 0x1d, 0xe6, 0xbd, 0x4f, 0x8d, 0x30, 0xbe, 0xa7, 0xf7, 0x62, 0x3e,
  0x23, 0x90, 0x82, 0x3c, 0x34, 0x70, 0x18, 0xbe, 0xc9, 0xf3, 0x84, 0x3d,
  0x46, 0xc7, 0x4f, 0xbe, 0x2f, 0x59, 0xd9, 0xbd, 0x26, 0xa9, 0xec, 0x3e,
  0x3b, 0xda, 0x3c, 0x3e, 0xd8, 0x8e, 0xd1, 0xbe, 0x08, 0x3a, 0x3a, 0x3e,
  0xdc, 0x39, 0x4b, 0xbe, 0xaa, 0x3f, 0xdb, 0x3e, 0xce, 0x36, 0x0d, 0xbe,
  0xcc, 0x3f, 0x1a, 0x3e, 0x8f, 0xcc, 0x1f, 0xbe, 0xc2, 0x24, 0xb7, 0x3d,
  0x9f, 0x78, 0xa7, 0x3e, 0x1d, 0x2a, 0x98, 0xbd, 0xde, 0x64, 0xb2, 0x3d,
  0x17, 0xda, 0x99, 0xbe, 0x53, 0x44, 0xef, 0x3d, 0x90, 0x1f, 0x44, 0xbe,
  0x8f, 0x75, 0x03, 0x3e, 0x38, 0x69, 0x96, 0x3e, 0x5b, 0xdf, 0xbf, 0xbe,
  0x7c, 0x18, 0x1b, 0xbe, 0xb9, 0xb1, 0xc6, 0xbd, 0x9c, 0x43, 0x79, 0x3e,
  0xa7, 0x2b, 0x12, 0xbe, 0x7b, 0x53, 0xb7, 0xbc, 0xf5, 0xa8, 0x09, 0x3e,
  0x71, 0xf4, 0x92, 0x3d, 0xf8, 0xbf, 0x20, 0xbe, 0xcf, 0x1a, 0x4c, 0xbd,
  0x36, 0xbc, 0x7b, 0xbd, 0xa0, 0x93, 0x53, 0xbe, 0x0e, 0x56, 0xda, 0x3e,
  0x4d, 0x14, 0x42, 0x3e, 0x2d, 0x33, 0xc1, 0x3e, 0x71, 0x9c, 0x5b, 0x3e,
  0x2f, 0x0a, 0x1d, 0xbe, 0x1d, 0x69, 0x7e, 0x3d, 0x17, 0xf0, 0x4e, 0xbe,
  0x09, 0x4d, 0xa2, 0x3e, 0x4d, 0x75, 0x8d, 0xbd, 0xc2, 0xe6, 0xe9, 0x3e,
  0x0d, 0xab, 0xc0, 0x3e, 0xb3, 0x29, 0xb9, 0x3c, 0xe5, 0x07, 0x57, 0x3d,
  0xee, 0x12, 0x83, 0xbd, 0xc2, 0x02, 0x33, 0x3e, 0xfe, 0x15, 0x91, 0x3e,
  0xc1, 0x11, 0x3b, 0x3e, 0x3b, 0x3a, 0xa4, 0x3e, 0x5e, 0x48, 0x8e, 0x3e,
  0xb1, 0xf3, 0x9d, 0x3e, 0x06, 0x01, 0xae, 0xbe, 0xdb, 0x34, 0x5e, 0x3d,
  0xe5, 0x5a, 0x56, 0xbe, 0x59, 0x1f, 0x8a, 0x3e, 0x36, 0xbb, 0x09, 0x3e,
  0xad, 0xe9, 0x05, 0x3f, 0xc5, 0xd2, 0x78, 0x3e, 0x36, 0x5b, 0x9b, 0x3e,
  0xb3, 0x53, 0x6c, 0x3d, 0xcd, 0xd8, 0x1a, 0x3d, 0x43, 0xed, 0x5c, 0x3c,
  0xef, 0xd2, 0xb1, 0x3e, 0xf9, 0x5c, 0x47, 0xbe, 0x50, 0x3e, 0xe5, 0xbc,
  0xc7, 0xb4, 0xec, 0x3e, 0x33, 0x6a, 0x38, 0x3e, 0xa6, 0x5a, 0xca, 0xbe,
  0xed, 0x3f, 0x43, 0xbe, 0x55, 0xfa, 0x34, 0xbc, 0x7c, 0x2b, 0xa9, 0x3e,
  0x4c, 0x92, 0xf7, 0xbc, 0x89, 0xf0, 0x98, 0x3e, 0xc5, 0xb1, 0x62, 0xbe,
  0x1a, 0xc9, 0xb9, 0xbd, 0x82, 0xba, 0x89, 0xbd, 0xef, 0x45, 0xfe, 0xbb,
  0x13, 0xa3, 0x85, 0x3e, 0x21, 0xa9, 0x1f, 0xbd, 0xa7, 0xb8, 0x05, 0xbd,
  0x95, 0xef, 0x10, 0xbe, 0xb7, 0xde, 0xbf, 0x3e, 0x0f, 0xa5, 0xe2, 0x3e,
  0xaf, 0x03, 0xa0, 0xbe, 0x81, 0x0b, 0x90, 0x3d, 0xa2, 0xaf, 0x91, 0xbe,
  0x5a, 0x07, 0x64, 0x3e, 0x67, 0x8e, 0x22, 0xbe, 0x2c, 0xe5, 0x36, 0x3e,
  0xb9, 0x93, 0x07, 0xbe, 0xb1, 0x9f, 0xe6, 0xbd, 0x11, 0x26, 0x42, 0x3d,
  0xfc, 0xbd, 0x37, 0xbd, 0x9a, 0xe1, 0xfd, 0xbd, 0x6d, 0xcf, 0x84, 0xbe,
  0x2b, 0x2d, 0x3d, 0x3d, 0x92, 0xa9, 0x25, 0x3d, 0x08, 0x8a, 0x0e, 0xbe,
  0xca, 0x98, 0xdb, 0xbc, 0x61, 0xef, 0x97, 0x3c, 0x0c, 0x85, 0xfc, 0xbd,
  0xc1, 0x3e, 0x12, 0xbe, 0x34, 0xee, 0xbc, 0x3d, 0x07, 0x75, 0x8a, 0xbd,
  0x83, 0xed, 0xa3, 0xbb, 0x0e, 0xe5, 0x98, 0xbd, 0x2b, 0xf5, 0x0b, 0xbe,
  0xe1, 0x0b, 0x26, 0x3d, 0x89, 0x08, 0xe6, 0xbc, 0xf4, 0xfc, 0x52, 0xbe,
  0x87, 0xc3, 0xa9, 0xbd, 0x67, 0x74, 0x27, 0xbd, 0x7b, 0xb9, 0x62, 0xbe,
  0x0a, 0xe0, 0xe9, 0xbb, 0x42, 0x7b, 0x08, 0xbe, 0x31, 0x3d, 0x45, 0xbe,
  0x53, 0x33, 0x3e, 0xbe, 0x0b, 0x0a, 0x3c, 0xbe, 0x84, 0x1a, 0x43, 0xbe,
  0xfe, 0x7a, 0x6d, 0xbd, 0x1d, 0xca, 0xec, 0xbd, 0x1c, 0xff, 0xd1, 0xbd,
  0xf7, 0xce, 0x34, 0xbe, 0x5a, 0x10, 0x3e, 0xbd, 0xd9, 0x54, 0x20, 0xbe,
  0x2b, 0x82, 0xab, 0xbd, 0x5f, 0x71, 0x44, 0xbe, 0x5d, 0xc7, 0x81, 0xbd,
  0xa2, 0x4b, 0x01, 0xbc, 0x79, 0xde, 0xd5, 0xbd, 0x0c, 0x21, 0x0c, 0xbe,
  0xa6, 0xb9, 0xd9, 0xbd, 0x01, 0xc0, 0x76, 0xbe, 0x02, 0x12, 0x63, 0xbd,
  0xcc, 0xf9, 0xfe, 0x3d, 0x25, 0xbe, 0x68, 0xbe, 0x09, 0x23, 0xbc, 0xbc,
  0x3a, 0xe4, 0xde, 0x3c, 0xe3, 0xb1, 0x8a, 0xbe, 0xf0, 0xe1, 0x01, 0xbd,
  0x23, 0xb6, 0xad, 0xbd, 0xa0, 0x47, 0x25, 0x3e, 0xf9, 0xa6, 0xca, 0xbd,
  0x02, 0x4a, 0x37, 0xbe, 0xb1, 0xc1, 0x3a, 0xbe, 0xe4, 0xa9, 0xf8, 0xbd,
  0x3e, 0x40, 0x6d, 0x3d, 0x13, 0xd9, 0x24, 0x3d, 0x00, 0x0b, 0x93, 0x3c,
  0x16, 0x16, 0x81, 0xbd, 0x0e, 0xda, 0x2a, 0x3e, 0x76, 0xb2, 0x7e, 0xbe,
  0xa9, 0xa4, 0x46, 0xbe, 0x23, 0xbd, 0xa2, 0xbd, 0x57, 0x91, 0x13, 0xbc,
  0x09, 0x4e, 0xe2, 0x3b, 0xbb, 0xb9, 0xab, 0xbe, 0xbf, 0xa2, 0xc0, 0x3d,
  0xe4, 0x47, 0xd0, 0xbd, 0xf0, 0xbe, 0x3c, 0xbe, 0xe5, 0xc0, 0xed, 0x3d,
  0xc2, 0xad, 0xfd, 0xbc, 0x9b, 0xa3, 0x46, 0xbd, 0x6d, 0x8f, 0x8d, 0xbc,
  0x0f, 0x7f, 0x31, 0x3e, 0x11, 0x46, 0x00, 0x3e, 0xb9, 0x80, 0x2f, 0xbe,
  0xa1, 0x51, 0xa2, 0xbe, 0xfd, 0xcf, 0xb6, 0xbd, 0x92, 0xac, 0x65, 0xbd,
  0x1c, 0x89, 0xa5, 0xbc, 0x75, 0xed, 0x59, 0xbe, 0xe7, 0x1e, 0x07, 0xbe,
  0x33, 0x28, 0x37, 0xbd, 0x39, 0xfd, 0x86, 0xbd, 0x08, 0x8f, 0x5c, 0xbd,
  0x98, 0x4c, 0xaf, 0x3d, 0x73, 0x13, 0xc1, 0x3d, 0x74, 0xe9, 0x91, 0xbc,
  0xb7, 0x1f, 0x7a, 0xbe, 0xcb, 0x8d, 0x05, 0xbd, 0x6b, 0xa6, 0xca, 0xbc,
  0x4b, 0x0b, 0x19, 0xbe, 0x9d, 0xcb, 0x4e, 0x3b, 0x29, 0x96, 0xe2, 0xbd,
  0x30, 0x18, 0xe8, 0xbc, 0xd0, 0xc4, 0xef, 0xbc, 0x4f, 0x8f, 0x8b, 0xbc,
  0x2c, 0xd7, 0x63, 0xbe, 0x0e, 0x30, 0xe6, 0x3d, 0x9b, 0x25, 0x16, 0x3e,
  0xe3, 0x7a, 0xd2, 0x3d, 0xf4, 0xa7, 0xaf, 0xbd, 0x27, 0xb5, 0xc5, 0x3c,
  0xab, 0xe6, 0x0f, 0xbe, 0x82, 0x2c, 0x0f, 0xbe, 0x32, 0xc8, 0x86, 0xbd,
  0x43, 0xe3, 0x7d, 0xbe, 0x99, 0x79, 0x8b, 0x3d, 0x9d, 0x0f, 0xd9, 0xbd,
  0xc4, 0x53, 0x99, 0xbc, 0x61, 0x49, 0xff, 0xbd, 0x6d, 0xdf, 0xe1, 0x3d,
  0x06, 0x65, 0x44, 0x3d, 0x11, 0x3c, 0x35, 0xbe, 0xa9, 0x70, 0x61, 0xbd,
  0x76, 0xdf, 0x88, 0x3d, 0xe8, 0x58, 0x39, 0xbe, 0xa8, 0xc2, 0xdb, 0xbd,
  0x7c, 0xd3, 0x98, 0xbe, 0xcb, 0x6f, 0x1e, 0x3c, 0x15, 0xf9, 0xe3, 0xbd,
  0x60, 0x8a, 0xe4, 0xbd, 0xe7, 0x75, 0x4c, 0xbe, 0x55, 0xd1, 0x8c, 0x3d,
  0xe1, 0x3e, 0x98, 0xbe, 0xa0, 0x52, 0xa1, 0x3b, 0x42, 0x69, 0xd8, 0xbd,
  0x94, 0xb6, 0x57, 0xbd, 0xdf, 0x19, 0x01, 0xbe, 0xfb, 0xb9, 0x42, 0x3d,
  0x22, 0x48, 0x5e, 0x3c, 0xab, 0x8b, 0xcd, 0xbd, 0x1c, 0xc0, 0x88, 0xbe,
  0xf6, 0x09, 0x3f, 0xbd, 0x7f, 0x93, 0x51, 0xbe, 0x08, 0xc4, 0xa5, 0xbd,
  0x91, 0xf1, 0xdb, 0x3c, 0x0f, 0x5e, 0x8c, 0xbe, 0x0d, 0x7a, 0xc1, 0xbc,
  0xa2, 0x75, 0x86, 0x3c, 0x2c, 0x0d, 0x11, 0xbe, 0x55, 0x46, 0x33, 0xbd,
  0x5a, 0x1d, 0xeb, 0xbb, 0xe3, 0x9c, 0x31, 0x3d, 0x6e, 0xf9, 0xc6, 0xbd,
  0x63, 0x02, 0xd5, 0xbd, 0x25, 0x6b, 0xfb, 0x3d, 0x07, 0x37, 0x8c, 0xbe,
  0x87, 0x35, 0x3a, 0xbe, 0xed, 0x1b, 0xb6, 0x3c, 0xe5, 0xc0, 0x38, 0xbe,
  0x44, 0x0d, 0x1b, 0x3e, 0xd5, 0xbd, 0x91, 0x3c, 0xf3, 0xb5, 0x87, 0xbc,
  0x0a, 0xd7, 0x91, 0xbe, 0x39, 0xaf, 0x0e, 0x3e, 0x85, 0x5e, 0xec, 0xbd,
  0xac, 0x28, 0x51, 0xbe, 0x7f, 0x4f, 0x74, 0xbd, 0x6c, 0x22, 0x14, 0xbd,
  0x20, 0x37, 0x4d, 0xbe, 0x4d, 0x9c, 0x8b, 0xbe, 0x1d, 0x62, 0xe1, 0xbd,
  0xff, 0x0f, 0x31, 0xbd, 0x1a, 0x5d, 0x21, 0xbd, 0x36, 0x53, 0xa6, 0xbd,
  0xdf, 0x27, 0x5f, 0x3d, 0x25, 0x30, 0x7b, 0xbd, 0x09, 0x70, 0x0f, 0xbd,
  0x49, 0x73, 0x36, 0xbe, 0xe3, 0x61, 0x20, 0xbe, 0x47, 0xed, 0xe2, 0x3d,
  0x00, 0xb0, 0x58, 0xbe, 0x87, 0x99, 0x9a, 0x3b, 0x6a, 0x44, 0xc9, 0x3d,
  0x71, 0x62, 0x02, 0x3e, 0xf0, 0xfa, 0x2d, 0xbe, 0x86, 0x05, 0xa6, 0xbe,
  0xa6, 0x5e, 0x62, 0xbd, 0x1a, 0x73, 0x1d, 0xbe, 0x38, 0x69, 0x3b, 0xbe,
  0x00, 0x4f, 0x14, 0x3d, 0xa7, 0x49, 0xba, 0x3c, 0x71, 0xe7, 0x56, 0xbe,
  0xe8, 0x2e, 0x0b, 0xbe, 0x69, 0xb6, 0x8e, 0x3d, 0x07, 0x9d, 0x35, 0xbd,
  0xe6, 0x6e, 0xf7, 0x3d, 0x16, 0x5c, 0x5a, 0xbe, 0x66, 0xe0, 0xfa, 0xbb,
  0x46, 0x29, 0x5c, 0xbe, 0xe4, 0xaa, 0x2d, 0xbd, 0x7b, 0xfc, 0xd6, 0x3d,
  0x62, 0xe7, 0x24, 0xbe, 0x3e, 0x59, 0x44, 0xbe, 0x95, 0x02, 0x91, 0xbe,
  0x14, 0x39, 0x87, 0xbe, 0xc2, 0xa5, 0xb8, 0x3d, 0xec, 0xa9, 0x35, 0xbe,
  0x04, 0xb9, 0xd8, 0x3d, 0x53, 0xc0, 0x8b, 0xbe, 0x8a, 0x31, 0x4c, 0xbe,
  0x39, 0x5e, 0x95, 0xbe, 0x1d, 0xe7, 0xf5, 0x3b, 0xaf, 0x09, 0x6d, 0xbe,
  0x26, 0xaf, 0xfb, 0x3d, 0x3a, 0x08, 0x04, 0xbe, 0x68, 0x3e, 0xed, 0x3d,
  0x5c, 0x32, 0x42, 0x3e, 0xa4, 0x84, 0x83, 0xbe, 0xb9, 0xd3, 0x47, 0xbe,
  0x1f, 0xaf, 0x79, 0x3d, 0xce, 0x8f, 0x73, 0x3b, 0x8e, 0xf4, 0x55, 0x3d,
  0x00, 0x3f, 0xa0, 0x39, 0x49, 0x12, 0x2a, 0xbe, 0x21, 0x79, 0x39, 0xbe,
  0x3f, 0xaa, 0x2f, 0xbd, 0x48, 0x58, 0xd1, 0xbd, 0x98, 0xf0, 0x99, 0xbd,
  0xd4, 0x27, 0x81, 0xbe, 0x09, 0x1a, 0x85, 0x3d, 0x73, 0x73, 0x6f, 0xbb,
  0xb2, 0x81, 0xb0, 0xbd, 0xcd, 0x61, 0x11, 0x3e, 0xc2, 0xfe, 0x27, 0xbe,
  0xdf, 0xe0, 0x8d, 0xbd, 0xcb, 0x9e, 0x06, 0x3e, 0x6a, 0x05, 0x7a, 0xbd,
  0x37, 0x98, 0x6a, 0xbe, 0xf4, 0x3f, 0x65, 0x3b, 0xad, 0x2d, 0xcf, 0xbc,
  0x28, 0x97, 0x68, 0xbe, 0x29, 0xa9, 0x4d, 0xbd, 0xc9, 0x1a, 0x2d, 0xbd,
  0x61, 0x1b, 0x35, 0xbe, 0x50, 0x7c, 0x81, 0xbe, 0xd4, 0xe3, 0x24, 0xbe,
  0xbd, 0x78, 0xf1, 0x3d, 0x80, 0x93, 0xa7, 0x3d, 0x62, 0x01, 0x9e, 0x3d,
  0x98, 0xb7, 0x38, 0xbe, 0x01, 0xb8, 0x01, 0x3e, 0x85, 0x80, 0x24, 0x3d,
  0xbc, 0x50, 0xd3, 0xbe, 0xd3, 0x9e, 0x67, 0xbe, 0x87, 0x2c, 0xf0, 0x3e,
  0xe4, 0xda, 0x8d, 0x3e, 0xbb, 0x9c, 0x83, 0xbe, 0xe8, 0x6a, 0xb1, 0x3e,
  0x28, 0xdd, 0x91, 0xbe, 0xcb, 0xbe, 0x17, 0x3e, 0xd3, 0x3a, 0x86, 0xba,
  0x72, 0x63, 0x4d, 0x3d, 0x49, 0xf2, 0xca, 0xbe, 0x78, 0x3d, 0x82, 0x3d,
  0xec, 0x15, 0x25, 0xbd, 0xaf, 0x47, 0x29, 0xbb, 0x99, 0xf0, 0xf4, 0x3d,
  0x7d, 0x36, 0xaf, 0xbe, 0x55, 0xe8, 0x9e, 0x3d, 0xa6, 0x3c, 0x2e, 0xbd,
  0x46, 0x73, 0xf6, 0x3d, 0xa9, 0xdd, 0x1d, 0x3e, 0x5c, 0x97, 0xa4, 0x3d,
  0x4b, 0x22, 0x95, 0xbd, 0xc3, 0xe9, 0x72, 0xbe, 0x9b, 0x59, 0x5f, 0x3e,
  0xd7, 0x5d, 0x94, 0x3d, 0xdd, 0x3b, 0xe6, 0xbd, 0x31, 0x80, 0xa6, 0x3d,
  0xe4, 0x25, 0xcb, 0x3d, 0x8d, 0x3a, 0x80, 0x3d, 0xe1, 0x16, 0xe8, 0x3c,
  0x0a, 0xb7, 0x4d, 0x3d, 0x56, 0x7b, 0x9f, 0xbd, 0x38, 0xf9, 0x26, 0x3e,
  0x2e, 0xd3, 0x7c, 0x3e, 0xae, 0x37, 0xb5, 0x3e, 0x84, 0x65, 0x87, 0x3e,
  0x2c, 0xe2, 0x22, 0x3e, 0x07, 0xfc, 0xf0, 0x3c, 0x4a, 0xe8, 0x4f, 0xbe,
  0xe0, 0x4e, 0xda, 0x3d, 0xc9, 0x1e, 0xf1, 0x3b, 0xc9, 0x81, 0xa5, 0x3c,
  0xc5, 0xc9, 0x5d, 0x3d, 0xff, 0x09, 0x63, 0xbd, 0x99, 0x98, 0xbc, 0x3e,
  0x60, 0x61, 0xea, 0x3c, 0x0a, 0x67, 0xa6, 0xbd, 0x79, 0x23, 0x15, 0x3e,
  0xee, 0xa5, 0xaa, 0x3e, 0x05, 0xd9, 0xf4, 0x3d, 0x12, 0xfc, 0x99, 0x3e,
  0x47, 0x27, 0xb0, 0x3e, 0x63, 0x4a, 0x1f, 0x3e, 0xe6, 0xed, 0x32, 0x3e,
  0xcc, 0xe7, 0x88, 0x3c, 0xe8, 0x86, 0xa5, 0x3e, 0x18, 0xbb, 0x31, 0xbb,
  0x3b, 0x46, 0x76, 0x3e, 0xe9, 0x03, 0x2d, 0xbe, 0x15, 0x00, 0x23, 0x3e,
  0x6f, 0xe1, 0x11, 0x3e, 0xcc, 0xc2, 0xcf, 0x3c, 0x5a, 0x7d, 0x44, 0x3d,
  0xab, 0xd5, 0x5a, 0x3e, 0x8e, 0x33, 0x92, 0xbe, 0x79, 0xbe, 0x3c, 0xbe,
  0x93, 0xc7, 0x01, 0x3d, 0xe2, 0x73, 0xb0, 0x3e, 0xae, 0x94, 0xd7, 0xbd,
  0x63, 0x9a, 0x0e, 0xbc, 0xfe, 0xce, 0xa2, 0xbd, 0x69, 0x29, 0xc2, 0x3e,
  0x98, 0x7b, 0x67, 0x3c, 0x7e, 0x9e, 0xcb, 0x3d, 0x06, 0x0d, 0xdb, 0xbe,
  0xf0, 0xc2, 0xe6, 0x3d, 0x7e, 0x8c, 0x00, 0x3d, 0x79, 0xa3, 0xac, 0x3c,
  0x2a, 0xb5, 0xae, 0x3d, 0xcb, 0x6f, 0xd3, 0x3d, 0xca, 0x41, 0xa8, 0xbe,
  0x7f, 0x9c, 0x10, 0xbe, 0x63, 0x03, 0x4d, 0x3c, 0x99, 0x23, 0x99, 0x3e,
  0x55, 0x4b, 0x3c, 0xbe, 0xa8, 0x95, 0x28, 0x3e, 0xb0, 0x52, 0x2d, 0xbe,
  0x7b, 0x5b, 0x71, 0x3e, 0x2c, 0x47, 0xe5, 0xbc, 0xc8, 0xb4, 0xba, 0x3d,
  0xca, 0xe7, 0x94, 0xbe, 0x80, 0xc4, 0x10, 0x3e, 0xf7, 0x65, 0x04, 0xbe,
  0x5d, 0x8c, 0x04, 0x3d, 0xe7, 0x42, 0xc8, 0x3e, 0x75, 0x63, 0xa0, 0xbe,
  0x08, 0xe8, 0xf3, 0xbd, 0xb6, 0x1d, 0xcd, 0xbd, 0x09, 0x48, 0x47, 0xbd,
  0xad, 0x0a, 0x68, 0x3c, 0x31, 0x21, 0x03, 0x3d, 0x36, 0xd1, 0xc2, 0x3d,
  0xd9, 0x57, 0xba, 0xbd, 0x43, 0x25, 0x55, 0x3d, 0x41, 0xb6, 0x2c, 0xbc,
  0x67, 0xf5, 0xd0, 0x3b, 0x95, 0x6d, 0x55, 0xbe, 0x6c, 0x57, 0xe3, 0xbd,
  0x6d, 0xa2, 0x8d, 0x3c, 0x94, 0x74, 0xda, 0x3c, 0x2e, 0xf3, 0x2c, 0x3e,
  0xf6, 0x13, 0x6c, 0xbd, 0x0b, 0x09, 0x30, 0xbe, 0x39, 0x07, 0x83, 0xbe,
  0x7d, 0xee, 0x37, 0xbe, 0xd2, 0xf7, 0x28, 0xbb, 0x33, 0x51, 0x86, 0xbd,
  0xb9, 0x33, 0x15, 0xbd, 0xfb, 0x5a, 0xa7, 0xbc, 0xa8, 0xcf, 0x4d, 0xbe,
  0x1f, 0xfa, 0xac, 0xbe, 0xac, 0xcb, 0xba, 0xbe, 0xc5, 0x90, 0x06, 0xbe,
  0xff, 0x57, 0xb9, 0xbe, 0xea, 0xd8, 0x18, 0x3c, 0xae, 0xd6, 0x5a, 0xbe,
  0xb6, 0x91, 0xe4, 0xbe, 0x07, 0xca, 0x5d, 0xbe, 0xd7, 0xe3, 0x85, 0xbc,
  0x27, 0x94, 0xaf, 0xba, 0xaf, 0xd8, 0x30, 0xbe, 0x8f, 0x10, 0xcd, 0x3d,
  0x57, 0x92, 0x7c, 0x3c, 0xf0, 0x31, 0x70, 0x3d, 0xef, 0x46, 0x61, 0x3d,
  0x02, 0x92, 0x09, 0xbe, 0x76, 0xe9, 0x96, 0xbe, 0xcd, 0xa0, 0x70, 0xbe,
  0x4d, 0xb4, 0x7b, 0x3d, 0x7a, 0x03, 0x86, 0xbe, 0x45, 0x36, 0xf7, 0x3d,
  0x34, 0x45, 0x11, 0xbe, 0x05, 0xcd, 0x7c, 0xbd, 0x71, 0x79, 0x32, 0xbd,
  0xbf, 0xf3, 0x3a, 0xbe, 0x60, 0x83, 0x2d, 0xbe, 0x5e, 0x5c, 0xad, 0xbe,
  0xd0, 0xc9, 0x88, 0xbb, 0xa5, 0xa3, 0x0a, 0x3d, 0x02, 0x44, 0xf5, 0xbc,
  0xa7, 0x5d, 0xce, 0x3d, 0xcb, 0x7a, 0x80, 0x3e, 0xe8, 0xd0, 0xbd, 0xbe,
  0x40, 0x05, 0x47, 0xbe, 0xa2, 0x77, 0xb7, 0xbd, 0x5e, 0x69, 0x7b, 0xbe,
  0x81, 0x04, 0x8d, 0x3d, 0xad, 0x0e, 0x32, 0xbe, 0x28, 0xa2, 0x5d, 0xbe,
  0x9c, 0x90, 0x8d, 0xbe, 0x08, 0x2f, 0x4d, 0xbe, 0xc7, 0x62, 0x14, 0xbf,
  0x43, 0x3e, 0x56, 0x3e, 0x86, 0x6d, 0x30, 0x3d, 0x28, 0xd2, 0x10, 0xbe,
  0x17, 0xfb, 0xb4, 0x3c, 0x3c, 0xd1, 0xde, 0xbd, 0x6c, 0xe4, 0x63, 0xbe,
  0x24, 0xa7, 0x9f, 0xbe, 0xc6, 0xf8, 0x9f, 0xbe, 0xfe, 0xfc, 0x50, 0xbe,
  0x95, 0x3c, 0xdd, 0xbe, 0x89, 0x3b, 0x6b, 0x3d, 0x79, 0xe9, 0x20, 0xbe,
  0x24, 0xf2, 0x9e, 0xbe, 0xa3, 0x68, 0x16, 0xbe, 0xc9, 0x0f, 0x83, 0x3e,
  0xb1, 0xde, 0x7b, 0x3d, 0x2e, 0x5f, 0x93, 0x3e, 0xef, 0x5b, 0xbe, 0xbe,
  0xfb, 0xb4, 0x69, 0xbd, 0xc7, 0x47, 0xdc, 0xbd, 0x15, 0x1a, 0x53, 0xbe,
  0x34, 0xe4, 0xb1, 0xbd, 0x77, 0xdd, 0x63, 0xbe, 0xfd, 0x32, 0x52, 0xbe,
  0xfb, 0x1e, 0xa8, 0x3e, 0x9e, 0xe4, 0x47, 0xbe, 0x97, 0x9a, 0x1c, 0xbe,
  0xf3, 0xb9, 0x33, 0xbe, 0xf7, 0x42, 0x21, 0xbe, 0xaf, 0x4e, 0xab, 0xbd,
  0xf2, 0xf7, 0x52, 0x3e, 0x4b, 0xa4, 0xba, 0xbb, 0xc6, 0x09, 0x88, 0x3e,
  0xac, 0x27, 0x99, 0xbe, 0x38, 0x51, 0x98, 0xbd, 0xd0, 0x08, 0xc4, 0xbd,
  0x28, 0x65, 0xb6, 0x3c, 0xc2, 0x48, 0x9b, 0xbe, 0x2b, 0x4b, 0xec, 0x3d,
  0x4b, 0xc7, 0xbc, 0x3d, 0xe8, 0xa0, 0xa1, 0x3e, 0x2a, 0x3d, 0x81, 0xbd,
  0xf6, 0x60, 0xf1, 0xbd, 0xcf, 0x4a, 0xa1, 0xbd, 0x5d, 0xb9, 0x3b, 0xbe,
  0x2f, 0xdd, 0x24, 0x3e, 0x7b, 0xb9, 0x73, 0x3e, 0xa4, 0xc6, 0x5e, 0x3e,
  0xd3, 0x3f, 0x50, 0x3d, 0x62, 0x0f, 0xc0, 0xbd, 0x1b, 0x74, 0x7c, 0x3d,
  0x9a, 0x69, 0x9b, 0xba, 0x7d, 0xb7, 0xd0, 0x3d, 0x96, 0x89, 0x59, 0xbc,
  0xa9, 0x1f, 0x88, 0x3d, 0xc4, 0xff, 0x73, 0x3d, 0x51, 0xb2, 0x59, 0x3e,
  0xa9, 0x27, 0x3e, 0x3e, 0xf7, 0x9b, 0xa0, 0x3d, 0x85, 0xcc, 0x18, 0x3e,
  0x3c, 0x04, 0x6d, 0xbd, 0x5a, 0xee, 0xfd, 0x3c, 0x9e, 0x89, 0x0f, 0xbd,
  0xa6, 0x5d, 0x1d, 0xbe, 0x8d, 0xb7, 0x25, 0x3f, 0xe1, 0x08, 0x98, 0x3c,
  0x22, 0x96, 0xdb, 0x3c, 0x7a, 0x19, 0x15, 0x3f, 0x6e, 0x62, 0xd5, 0xbd,
  0x99, 0xe5, 0x4a, 0x3d, 0x55, 0xe7, 0x54, 0xbd, 0x3c, 0xb4, 0x87, 0xbd,
  0xc6, 0xcf, 0x5f, 0xbe, 0x10, 0xca, 0x1d, 0x3d, 0x1d, 0xed, 0xd5, 0x3e,
  0x68, 0x31, 0x44, 0xbe, 0xc9, 0xbb, 0x86, 0xbe, 0x19, 0x9e, 0x99, 0xbe,
  0xb8, 0x55, 0xb5, 0xbd, 0x86, 0x40, 0x30, 0xbe, 0xc7, 0xb6, 0x9d, 0x3e,
  0x0f, 0x62, 0xf3, 0xbb, 0x5c, 0xd6, 0xfb, 0xbb, 0xa7, 0x1e, 0x39, 0x3f,
  0x87, 0xe8, 0x68, 0xbe, 0x09, 0xe9, 0x5b, 0xbc, 0xcb, 0x02, 0xdb, 0xbd,
  0x60, 0xed, 0x11, 0xbe, 0xdc, 0xc4, 0xe0, 0x3d, 0xb7, 0x01, 0xb4, 0x3d,
  0xcb, 0xf0, 0xe7, 0x3e, 0x21, 0x94, 0x3b, 0xbe, 0xd1, 0x41, 0x33, 0xbe,
  0xde, 0x9c, 0x01, 0x3e, 0x20, 0x77, 0x21, 0x3e, 0x3b, 0x93, 0xde, 0xbd,
  0x30, 0xc8, 0x14, 0x3f, 0x1b, 0xa4, 0x3d, 0x3e, 0x9f, 0x0d, 0xda, 0x3d,
  0xc0, 0x9b, 0x0d, 0x3f, 0x95, 0x18, 0x94, 0xbe, 0x3b, 0xeb, 0x9b, 0xbe,
  0xf8, 0xb5, 0x48, 0xbe, 0x7d, 0x53, 0x4b, 0xbe, 0x4e, 0x2e, 0x10, 0x3d,
  0x61, 0x93, 0x76, 0x3c, 0xde, 0x81, 0x15, 0x3f, 0xc5, 0xde, 0xb3, 0xbe,
  0x31, 0x90, 0x94, 0x3d, 0x41, 0x21, 0x16, 0xbd, 0x34, 0x9b, 0x8b, 0x3c,
  0xf8, 0x6c, 0x21, 0x3e, 0xe5, 0x9d, 0xf5, 0x3e, 0x72, 0x8b, 0x3b, 0x3d,
  0x1a, 0x51, 0x69, 0xbe, 0xab, 0x54, 0x28, 0x3f, 0x76, 0xc7, 0x0e, 0x3d,
  0x64, 0x14, 0x0b, 0xbe, 0xad, 0xeb, 0x86, 0x3d, 0x13, 0xfb, 0x64, 0x3d,
  0x45, 0xe8, 0x80, 0x3d, 0x49, 0x0c, 0x69, 0xbd, 0xc9, 0x81, 0x29, 0x3f,
  0x08, 0x40, 0xc9, 0xbd, 0xb5, 0x5f, 0x75, 0x3e, 0x99, 0x3b, 0xc5, 0xbc,
  0xbf, 0xde, 0xc6, 0x3c, 0xfd, 0x27, 0x30, 0x3d, 0x33, 0xae, 0x88, 0x3e,
  0x4b, 0xd4, 0x42, 0x3c, 0x74, 0x23, 0xe8, 0xbc, 0x27, 0x20, 0xe6, 0x3e,
  0xe4, 0xf4, 0x75, 0xbd, 0x98, 0x3f, 0x84, 0x3e, 0x13, 0x3a, 0x49, 0xbe,
  0x92, 0x10, 0xe8, 0xbc, 0xc2, 0x2d, 0x48, 0xbe, 0xe8, 0xb7, 0x1a, 0xbd,
  0x46, 0x8b, 0xff, 0x3e, 0xfe, 0xb1, 0xc8, 0xbe, 0xb9, 0xb4, 0x74, 0xbe,
  0xef, 0x19, 0x38, 0xbe, 0x6d, 0x57, 0x82, 0xbd, 0x01, 0x04, 0xad, 0xbe,
  0xd6, 0xf0, 0xa3, 0x3e, 0xb5, 0x9f, 0xde, 0x3c, 0x5b, 0xa9, 0x03, 0xbe,
  0xb7, 0x37, 0x3e, 0x3f, 0x93, 0x07, 0x2c, 0xbe, 0x87, 0x0b, 0x39, 0x3c,
  0x68, 0x0d, 0xe3, 0xbd, 0xff, 0x3c, 0x51, 0xbe, 0x5b, 0x7a, 0x16, 0xbe,
  0x78, 0x42, 0x77, 0xbd, 0x47, 0x80, 0x26, 0x3f, 0xd6, 0x2e, 0xa8, 0xbe,
  0x29, 0xfb, 0x39, 0xbc, 0xfb, 0x83, 0xf5, 0xbd, 0xbd, 0x45, 0xf9, 0xbd,
  0xab, 0x2f, 0x06, 0xbe, 0xf6, 0xc3, 0x95, 0x3e, 0x0b, 0xa6, 0x6e, 0x3d,
  0x96, 0xf4, 0xf6, 0xbd, 0x17, 0x4c, 0x3a, 0x3d, 0x5c, 0xa9, 0x79, 0xbe,
  0x1f, 0xeb, 0x93, 0xbe, 0x8c, 0xf0, 0xc3, 0xbd, 0x57, 0xd8, 0x8c, 0x3c,
  0xe0, 0x5b, 0xa9, 0xbd, 0x29, 0x4f, 0x6a, 0xbe, 0x7b, 0xeb, 0xa0, 0x3e,
  0x0b, 0x18, 0x13, 0xbe, 0x2b, 0x09, 0xf5, 0xbd, 0x37, 0x62, 0xc5, 0xbd,
  0xc1, 0xc2, 0x90, 0xbd, 0xeb, 0x59, 0x77, 0xbe, 0xea, 0xb0, 0x20, 0x3e,
  0x14, 0xdb, 0x26, 0xbe, 0x15, 0x83, 0x2d, 0xbe, 0x19, 0x96, 0x6a, 0xbe,
  0xaa, 0xec, 0x9f, 0x3d, 0x28, 0x3c, 0x10, 0xbe, 0x70, 0x61, 0x78, 0xbe,
  0xe5, 0xff, 0xe8, 0x3c, 0x06, 0x0f, 0x78, 0x3d, 0x69, 0x0b, 0x7c, 0xbd,
  0x6a, 0x8b, 0x28, 0xbe, 0x1d, 0x7f, 0xd7, 0xbd, 0x06, 0xc7, 0xba, 0x3c,
  0x4e, 0x3f, 0x8f, 0x3d, 0x53, 0x01, 0x78, 0x3d, 0x93, 0x4f, 0xc8, 0xbd,
  0x4e, 0x24, 0x5f, 0xbe, 0x34, 0x2e, 0x09, 0x3e, 0x5a, 0x80, 0x7e, 0xbd,
  0xef, 0x25, 0x89, 0xbd, 0x3b, 0x96, 0xb9, 0xbd, 0x13, 0x96, 0x94, 0xbb,
  0xd8, 0xf7, 0x26, 0xbe, 0x64, 0x0a, 0x5a, 0xbe, 0x12, 0xec, 0x44, 0xbe,
  0x8d, 0x1e, 0x56, 0xbe, 0x0b, 0x20, 0xf9, 0xbc, 0xca, 0x82, 0x5a, 0xbe,
  0xd9, 0x6b, 0x99, 0xbe, 0x36, 0xa6, 0x0a, 0x3e, 0xdd, 0x61, 0xe3, 0xbd,
  0x16, 0x10, 0xfa, 0xbd, 0xd2, 0x90, 0x63, 0xbe, 0x5a, 0x6f, 0x35, 0x3e,
  0x22, 0xdc, 0x0d, 0x3e, 0xb2, 0x61, 0x3c, 0xbe, 0x00, 0x34, 0x66, 0xbe,
  0x86, 0xd0, 0x03, 0xbe, 0xcf, 0x70, 0x98, 0xbe, 0x2d, 0x03, 0x03, 0xbe,
  0x82, 0x5e, 0x5e, 0xbe, 0xe9, 0xa9, 0x0c, 0xbe, 0xe3, 0x9a, 0xbe, 0xbd,
  0xbf, 0x8f, 0x86, 0xbe, 0x86, 0xf4, 0x2b, 0xbd, 0xba, 0x58, 0x06, 0xbd,
  0x50, 0xbc, 0x3d, 0xbe, 0xfa, 0xa5, 0xbc, 0xbb, 0xad, 0x70, 0x94, 0x3d,
  0x71, 0xf1, 0x2f, 0x3e, 0xb9, 0x5d, 0x4a, 0xbd, 0x65, 0xc5, 0xa1, 0x3d,
  0xd5, 0x92, 0xc1, 0x3d, 0xec, 0x2b, 0x77, 0x3b, 0x90, 0x42, 0x60, 0xbe,
  0x74, 0x82, 0xb0, 0x3d, 0xbd, 0x49, 0xe3, 0xbd, 0x2b, 0x0a, 0x52, 0xbe,
  0x07, 0x3e, 0x0b, 0xbe, 0xd1, 0xa2, 0x12, 0x3d, 0x19, 0xe8, 0xcb, 0xbc,
  0xd5, 0xc3, 0xd7, 0xbb, 0x71, 0x24, 0x7c, 0xbe, 0x58, 0x68, 0x10, 0x3e,
  0xe5, 0x7d, 0x5b, 0x3d, 0xc9, 0x72, 0x61, 0xbe, 0xe7, 0x93, 0xf1, 0x3d,
  0x77, 0x1d, 0x99, 0x3d, 0xaa, 0xf8, 0x50, 0xbd, 0x12, 0x92, 0xa7, 0x3d,
  0xa7, 0xaf, 0x94, 0xbd, 0x27, 0x8c, 0xea, 0xbb, 0x2d, 0x25, 0x2c, 0xbe,
  0xd1, 0x5c, 0x0c, 0xbe, 0x74, 0x81, 0x1a, 0xbe, 0x75, 0x15, 0x7d, 0xbe,
  0x2b, 0xbd, 0xcb, 0xbd, 0xeb, 0xd4, 0x83, 0xbe, 0x75, 0x54, 0x69, 0xbe,
  0xe5, 0xc4, 0xf8, 0x3c, 0xfa, 0x91, 0x89, 0x3d, 0x64, 0xb5, 0x7d, 0x3d,
  0x92, 0x48, 0x56, 0xbe, 0x41, 0xfe, 0x0a, 0x3e, 0x33, 0xa7, 0xe3, 0xbb,
  0x03, 0x49, 0xbf, 0xbd, 0xe6, 0xec, 0x73, 0x3d, 0x66, 0x41, 0x40, 0xbd,
  0x75, 0xf6, 0xc6, 0x3d, 0xc4, 0x89, 0xcf, 0xbd, 0x29, 0xc2, 0xa9, 0xbd,
  0x9b, 0xfb, 0x33, 0xbe, 0xc6, 0x58, 0xb1, 0x3d, 0x31, 0x3e, 0xa8, 0xbd,
  0x79, 0xb5, 0x73, 0xbe, 0x23, 0x94, 0xe9, 0x3d, 0x9c, 0xa1, 0x91, 0xbd,
  0x09, 0xf0, 0xaf, 0xbd, 0x82, 0x67, 0x09, 0xbe, 0xce, 0x02, 0x82, 0xbe,
  0x6e, 0x3a, 0x80, 0xbe, 0xd9, 0xe8, 0x39, 0x3c, 0x10, 0x4e, 0x2d, 0xbe,
  0xaf, 0xae, 0x80, 0xbe, 0x28, 0x36, 0x80, 0xbd, 0x9f, 0x38, 0xc2, 0x3d,
  0xa0, 0x2f, 0x5b, 0xbe, 0xf0, 0x91, 0x4d, 0xbe, 0xad, 0xa5, 0x3a, 0xbe,
  0x60, 0xc1, 0x87, 0xbe, 0x76, 0x87, 0x40, 0xbe, 0x9f, 0x5c, 0x11, 0xbe,
  0x17, 0x93, 0x40, 0x3f, 0xb6, 0x3e, 0x00, 0xbe, 0xb0, 0xc6, 0x96, 0x3d,
  0x2c, 0x10, 0x26, 0x3f, 0x7a, 0x10, 0x84, 0x3c, 0x04, 0xc3, 0xf2, 0x3d,
  0xf4, 0x09, 0xa1, 0xbd, 0x10, 0x53, 0x55, 0xbe, 0x23, 0xf2, 0x27, 0xbe,
  0x77, 0x96, 0x5e, 0xbe, 0xe4, 0x54, 0x24, 0x3f, 0x7d, 0xef, 0xac, 0xbe,
  0x15, 0x2d, 0x26, 0x3d, 0x26, 0xad, 0x07, 0x3d, 0x65, 0x5f, 0x33, 0xbe,
  0x5a, 0xfa, 0x80, 0xbb, 0xf0, 0x19, 0xb2, 0x3e, 0xfe, 0x9a, 0xe8, 0xbd,
  0x92, 0xe2, 0xd0, 0xbc, 0x62, 0x21, 0x1b, 0x3f, 0x7f, 0x74, 0x60, 0xbd,
  0x5e, 0xec, 0xac, 0x3c, 0x2c, 0x42, 0x42, 0xbd, 0x2b, 0xea, 0xed, 0xbc,
  0xa3, 0x61, 0x72, 0xbe, 0x3f, 0x2a, 0x19, 0x3e, 0x2f, 0x79, 0x1d, 0x3f,
  0x72, 0xb8, 0xbb, 0xbe, 0x68, 0xb2, 0xb7, 0x3c, 0x42, 0x4b, 0x9b, 0xbd,
  0xee, 0xe9, 0xd2, 0x3d, 0xc6, 0x52, 0x49, 0xbe, 0xad, 0x69, 0xba, 0x3e,
  0xa7, 0x95, 0x03, 0x3d, 0xfe, 0xe3, 0x45, 0x3e, 0xba, 0x99, 0x9e, 0x3e,
  0x29, 0xe4, 0x8d, 0xbe, 0x8c, 0xbc, 0x86, 0xbe, 0xf3, 0x11, 0x22, 0xbe,
  0x77, 0x2d, 0x1e, 0xbe, 0x71, 0x92, 0xc8, 0xbd, 0x35, 0x26, 0x09, 0xbe,
  0xde, 0x98, 0xe8, 0x3e, 0xe4, 0xa5, 0xbb, 0xbd, 0x2a, 0x49, 0xa0, 0x3d,
  0x15, 0xc0, 0xf3, 0x3d, 0x06, 0x76, 0x48, 0xbe, 0x2c, 0x69, 0x99, 0xbe,
  0xb7, 0x5f, 0xfd, 0x3e, 0x94, 0x2f, 0x33, 0xbe, 0xeb, 0x66, 0xcb, 0xbd,
  0x3a, 0x5e, 0x21, 0x3f, 0x5b, 0xdd, 0x85, 0x3c, 0xef, 0x39, 0x27, 0xbe,
  0xdf, 0x50, 0xc9, 0xbd, 0xac, 0xfc, 0x80, 0x3d, 0x1d, 0x95, 0x35, 0xbe,
  0xc1, 0x7b, 0x34, 0xbe, 0x4d, 0x15, 0x30, 0x3f, 0xd0, 0x5f, 0x8b, 0xbe,
  0x2b, 0xcd, 0x8e, 0x3d, 0xa1, 0xfb, 0xb9, 0xbd, 0x91, 0xfc, 0x82, 0xbe,
  0x70, 0x71, 0xfd, 0x3c, 0x77, 0xfc, 0xec, 0x3d, 0x41, 0x8b, 0x67, 0xbe,
  0x19, 0xcb, 0x6b, 0x3e, 0xce, 0x2f, 0xec, 0x3e, 0xb8, 0xbe, 0x41, 0x3d,
  0x4c, 0xf3, 0x71, 0xbd, 0xec, 0x57, 0xc1, 0xbd, 0xe9, 0xec, 0x12, 0xbe,
  0x5b, 0x12, 0xbb, 0xbd, 0x39, 0x96, 0x8a, 0xbd, 0xb9, 0xe8, 0x1b, 0x3f,
  0xf7, 0xa9, 0xc1, 0xbe, 0x71, 0x7c, 0x0b, 0xbe, 0x87, 0x3e, 0x18, 0x3d,
  0x06, 0xd4, 0x00, 0xbe, 0xbe, 0x2c, 0x63, 0xbe, 0x5b, 0x46, 0xb9, 0x3e,
  0xff, 0x0d, 0x95, 0xbe, 0x7a, 0x2a, 0x8e, 0xbd, 0xe0, 0x91, 0x05, 0x3f,
  0x94, 0x6a, 0x03, 0xbe, 0x60, 0xa3, 0x25, 0xbd, 0x14, 0x96, 0xcd, 0xbd,
  0xfb, 0x2f, 0x11, 0xbe, 0x95, 0x11, 0xe0, 0x3d, 0xb9, 0x0f, 0xe6, 0x3d,
  0xbf, 0x43, 0x1c, 0x3f, 0xd1, 0x9c, 0xca, 0xbe, 0xc6, 0xe8, 0x1a, 0xbe,
  0xf4, 0x43, 0x7d, 0x3c, 0x82, 0x26, 0xc3, 0x3c, 0xcc, 0xc0, 0x28, 0xbe,
  0x75, 0x17, 0x0a, 0x3e, 0x34, 0x7a, 0x18, 0xbe, 0x7c, 0xf6, 0xaf, 0xbe,
  0xa1, 0xd9, 0x8e, 0x3e, 0x19, 0x61, 0xc5, 0xbe, 0x1f, 0xb3, 0x36, 0xbe,
  0xc0, 0x24, 0x3b, 0xbe, 0xc0, 0xf8, 0x73, 0xbe, 0x6b, 0x77, 0x41, 0xbe,
  0x70, 0xbe, 0x57, 0xbd, 0x05, 0xd9, 0x13, 0x3f, 0x8d, 0x5c, 0xcb, 0xbe,
  0x7e, 0x41, 0xa6, 0xbd, 0x4f, 0x29, 0xbc, 0x3b, 0x4a, 0xaa, 0xdc, 0xbd,
  0xbb, 0xe1, 0x52, 0x3d, 0x65, 0xfe, 0x24, 0xbe, 0x60, 0x5e, 0x31, 0x3d,
  0xa8, 0x32, 0xbd, 0xbc, 0xd7, 0x21, 0x31, 0x3e, 0xf5, 0x13, 0xc6, 0x3d,
  0x76, 0x57, 0x39, 0xbd, 0xfc, 0x03, 0x29, 0xbe, 0xc8, 0xca, 0x49, 0xbe,
  0x2a, 0x94, 0x84, 0xbd, 0xe4, 0xf5, 0xbc, 0xbd, 0xea, 0x7d, 0x0f, 0x3e,
  0xfa, 0xae, 0xb6, 0x3d, 0xa5, 0x65, 0x4e, 0x3e, 0xc8, 0x8d, 0x58, 0xbe,
  0xb0, 0x91, 0x2f, 0x3d, 0xc4, 0x15, 0xae, 0x3d, 0xe0, 0xea, 0x55, 0xbd,
  0x37, 0x74, 0x60, 0xbe, 0x84, 0x18, 0x7b, 0x3d, 0x2d, 0x25, 0x32, 0x3e,
  0xb2, 0x26, 0x45, 0x3a, 0x28, 0x3f, 0xd9, 0x3d, 0x84, 0x68, 0x59, 0xbe,
  0x16, 0x7d, 0x8a, 0xbe, 0x18, 0x7a, 0x04, 0x3e, 0x4b, 0x40, 0xee, 0x3d,
  0xd7, 0x02, 0xbc, 0x3d, 0x8f, 0xd5, 0x78, 0xbd, 0xaa, 0x0c, 0x85, 0x3d,
  0x3f, 0x3c, 0x99, 0xbd, 0xe6, 0x58, 0x3b, 0xbe, 0x7d, 0xa7, 0x09, 0x3e,
  0x5f, 0xed, 0x1b, 0xbd, 0x7d, 0xa8, 0xcd, 0x3d, 0x9b, 0xee, 0xc9, 0xbd,
  0xff, 0x9f, 0xe3, 0x3d, 0xdc, 0x2a, 0x70, 0xbe, 0xdb, 0x15, 0x94, 0x3d,
  0x98, 0x1a, 0x5f, 0xb9, 0xc8, 0xc3, 0xa0, 0xbd, 0x69, 0x70, 0xc6, 0x3d,
  0x52, 0x17, 0x30, 0xbe, 0x47, 0xcf, 0xb0, 0x3d, 0xca, 0xba, 0x0e, 0xbe,
  0xb4, 0xc4, 0x47, 0x3e, 0x5c, 0x26, 0x8c, 0xbd, 0xb3, 0x1e, 0x4c, 0x3d,
  0x6f, 0x29, 0x22, 0x3d, 0x11, 0x5f, 0x65, 0xbe, 0xba, 0xe8, 0x2f, 0x3e,
  0x33, 0x45, 0x73, 0xbe, 0xd8, 0x4a, 0x07, 0x3d, 0x51, 0x4c, 0x57, 0xbe,
  0x46, 0x52, 0x07, 0x3e, 0x1c, 0xed, 0x7e, 0xbe, 0x6f, 0xeb, 0xe5, 0xbd,
  0xfc, 0xbc, 0x29, 0x3e, 0x70, 0xdb, 0x1e, 0x3d, 0xf0, 0x66, 0x26, 0xbe,
  0xc5, 0xee, 0xd7, 0x3d, 0x35, 0x17, 0xc2, 0x3c, 0x99, 0x6f, 0x22, 0xbe,
  0xdf, 0x80, 0x13, 0x3e, 0xa1, 0xca, 0x4f, 0xbe, 0x6a, 0xe7, 0x34, 0x3c,
  0xde, 0xe9, 0xd4, 0xbc, 0xf2, 0xda, 0x8d, 0xbe, 0x0a, 0x36, 0x76, 0xbd,
  0x01, 0xa4, 0x59, 0xbe, 0x2d, 0xdc, 0x56, 0xbe, 0x2f, 0x17, 0x07, 0xbe,
  0x09, 0x31, 0x82, 0x3d, 0x32, 0x87, 0x67, 0xbe, 0x79, 0xa8, 0x48, 0xbe,
  0x1f, 0x17, 0xe8, 0x3d, 0x4e, 0x30, 0x2d, 0xbd, 0x11, 0xfd, 0xd1, 0xbd,
  0x87, 0xc0, 0x68, 0xbd, 0xa0, 0x30, 0x92, 0xbd, 0x13, 0xff, 0x07, 0x3e,
  0x8d, 0x29, 0xc3, 0x3d, 0x6e, 0xbd, 0x18, 0xbd, 0x95, 0x1a, 0x4f, 0xbc,
  0x4c, 0x95, 0xc2, 0xbc, 0x87, 0xeb, 0xa0, 0x3c, 0xc4, 0x29, 0xc9, 0xbd,
  0xda, 0x12, 0xbb, 0x3b, 0x11, 0x5a, 0x60, 0xbe, 0xed, 0x81, 0xce, 0xbd,
  0xcd, 0xe1, 0x29, 0xbd, 0x27, 0x61, 0x84, 0xbd, 0xe7, 0xf8, 0x93, 0x3d,
  0x41, 0x58, 0x7f, 0xbd, 0x33, 0x65, 0x06, 0xbe, 0x38, 0xec, 0x83, 0x3d,
  0x76, 0x4d, 0x72, 0xbd, 0x32, 0x53, 0xc9, 0xbc, 0x06, 0x10, 0xd6, 0xbd,
  0x7a, 0x11, 0x0b, 0xbe, 0x7f, 0x9b, 0x06, 0x3e, 0x5e, 0x05, 0x88, 0xbe,
  0xaa, 0x14, 0xe9, 0x3d, 0x15, 0x9e, 0x93, 0xbd, 0x1a, 0x08, 0xed, 0xbd,
  0x44, 0x3c, 0xf0, 0xbb, 0xec, 0x0f, 0x1a, 0xbe, 0x07, 0x6f, 0x6f, 0x3e,
  0x04, 0x12, 0x01, 0xbe, 0x0f, 0x40, 0xd7, 0x3c, 0x41, 0x2d, 0x3d, 0xbe,
  0x46, 0xfe, 0xff, 0xff, 0x10, 0x00, 0x00, 0x00, 0x05, 0x00, 0x00, 0x00,
  0x14, 0x00, 0x00, 0x00, 0x2c, 0x00, 0x00, 0x00, 0x02, 0x00, 0x00, 0x00,
  0x10, 0x00, 0x00, 0x00, 0x70, 0x00, 0x00, 0x00, 0x17, 0x00, 0x00, 0x00,
  0x73, 0x65, 0x71, 0x75, 0x65, 0x6e, 0x74, 0x69, 0x61, 0x6c, 0x2f, 0x64,
  0x65, 0x6e, 0x73, 0x65, 0x2f, 0x4d, 0x61, 0x74, 0x4d, 0x75, 0x6c, 0x00,
  0x34, 0xfe, 0xff, 0xff, 0x2a, 0xff, 0xff, 0xff, 0x04, 0x00, 0x00, 0x00,
  0x08, 0x00, 0x00, 0x00, 0xff, 0xff, 0xff, 0xff, 0x70, 0x00, 0x00, 0x00,
  0x00, 0x00, 0x0e, 0x00, 0x18, 0x00, 0x08, 0x00, 0x07, 0x00, 0x0c, 0x00,
  0x10, 0x00, 0x14, 0x00, 0x0e, 0x00, 0x00, 0x00, 0x00, 0x00, 0x00, 0x02,
  0x10, 0x00, 0x00, 0x00, 0x04, 0x00, 0x00, 0x00, 0x10, 0x00, 0x00, 0x00,
  0x2c, 0x00, 0x00, 0x00, 0x01, 0x00, 0x00, 0x00, 0x02, 0x00, 0x00, 0x00,
  0x18, 0x00, 0x00, 0x00, 0x73, 0x65, 0x71, 0x75, 0x65, 0x6e, 0x74, 0x69,
  0x61, 0x6c, 0x2f, 0x66, 0x6c, 0x61, 0x74, 0x74, 0x65, 0x6e, 0x2f, 0x43,
  0x6f, 0x6e, 0x73, 0x74, 0x00, 0x00, 0x00, 0x00, 0x9c, 0xfe, 0xff, 0xff,
  0x92, 0xff, 0xff, 0xff, 0x04, 0x00, 0x00, 0x00, 0x10, 0x00, 0x00, 0x00,
  0x2b, 0x56, 0x26, 0xc0, 0x10, 0x7b, 0xfb, 0x3f, 0xb5, 0xc7, 0x39, 0xc1,
  0x86, 0x51, 0x23, 0x3f, 0x0a, 0xff, 0xff, 0xff, 0x10, 0x00, 0x00, 0x00,
  0x03, 0x00, 0x00, 0x00, 0x10, 0x00, 0x00, 0x00, 0x3c, 0x00, 0x00, 0x00,
  0x01, 0x00, 0x00, 0x00, 0x04, 0x00, 0x00, 0x00, 0x29, 0x00, 0x00, 0x00,
  0x73, 0x65, 0x71, 0x75, 0x65, 0x6e, 0x74, 0x69, 0x61, 0x6c, 0x2f, 0x64,
  0x65, 0x6e, 0x73, 0x65, 0x5f, 0x31, 0x2f, 0x42, 0x69, 0x61, 0x73, 0x41,
  0x64, 0x64, 0x2f, 0x52, 0x65, 0x61, 0x64, 0x56, 0x61, 0x72, 0x69, 0x61,
  0x62, 0x6c, 0x65, 0x4f, 0x70, 0x00, 0x00, 0x00, 0x60, 0xff, 0xff, 0xff,
  0x00, 0x00, 0x06, 0x00, 0x08, 0x00, 0x04, 0x00, 0x06, 0x00, 0x00, 0x00,
  0x04, 0x00, 0x00, 0x00, 0x40, 0x00, 0x00, 0x00, 0xe1, 0x90, 0x0d, 0x3f,
  0xe7, 0x55, 0x5d, 0x40, 0x56, 0x77, 0xa7, 0xbf, 0x5d, 0x33, 0xe0, 0xbe,
  0x31, 0x83, 0x27, 0xbe, 0xcb, 0xca, 0x59, 0xbf, 0x7a, 0x4a, 0x84, 0x40,
  0x02, 0x62, 0xae, 0xbe, 0x27, 0x44, 0x35, 0xbe, 0x57, 0x83, 0x76, 0xbe,
  0x9a, 0xc1, 0xf1, 0x3f, 0x3a, 0x60, 0x87, 0xbf, 0x25, 0x21, 0xfe, 0x3e,
  0x4d, 0xf8, 0x4e, 0xbe, 0x7c, 0x6b, 0x01, 0x3e, 0xd9, 0x0a, 0x40, 0xbe,
  0xae, 0xff, 0xff, 0xff, 0x10, 0x00, 0x00, 0x00, 0x02, 0x00, 0x00, 0x00,
  0x10, 0x00, 0x00, 0x00, 0x3c, 0x00, 0x00, 0x00, 0x01, 0x00, 0x00, 0x00,
  0x10, 0x00, 0x00, 0x00, 0x27, 0x00, 0x00, 0x00, 0x73, 0x65, 0x71, 0x75,
  0x65, 0x6e, 0x74, 0x69, 0x61, 0x6c, 0x2f, 0x64, 0x65, 0x6e, 0x73, 0x65,
  0x2f, 0x42, 0x69, 0x61, 0x73, 0x41, 0x64, 0x64, 0x2f, 0x52, 0x65, 0x61,
  0x64, 0x56, 0x61, 0x72, 0x69, 0x61, 0x62, 0x6c, 0x65, 0x4f, 0x70, 0x00,
  0x04, 0x00, 0x06, 0x00, 0x04, 0x00, 0x00, 0x00, 0x00, 0x00, 0x0e, 0x00,
  0x14, 0x00, 0x04, 0x00, 0x00, 0x00, 0x08, 0x00, 0x0c, 0x00, 0x10, 0x00,
  0x0e, 0x00, 0x00, 0x00, 0x10, 0x00, 0x00, 0x00, 0x01, 0x00, 0x00, 0x00,
  0x1c, 0x00, 0x00, 0x00, 0x2c, 0x00, 0x00, 0x00, 0x04, 0x00, 0x00, 0x00,
  0x01, 0x00, 0x00, 0x00, 0x40, 0x00, 0x00, 0x00, 0x03, 0x00, 0x00, 0x00,
  0x01, 0x00, 0x00, 0x00, 0x0c, 0x00, 0x00, 0x00, 0x63, 0x6f, 0x6e, 0x76,
  0x32, 0x64, 0x5f, 0x69, 0x6e, 0x70, 0x75, 0x74, 0x00, 0x00, 0x00, 0x00,
  0xfc, 0xff, 0xff, 0xff, 0x04, 0x00, 0x04, 0x00, 0x04, 0x00, 0x00, 0x00

  // Paste the data of the char array in `src/model.cc` here
};

unsigned int model_tflite_len = 12384;// Fill the int in `src/model.cc` here